{
  "version": "1.0",
  "truncation": null,
  "padding": {
    "strategy": "BatchLongest",
    "direction": "Right",
    "pad_to_multiple_of": null,
    "pad_id": 0,
    "pad_type_id": 0,
    "pad_token": "<pad>"
  },
  "added_tokens": [
    {
      "id": 0,
      "content": "<pad>",
      "single_word": false,
      "lstrip": false,
      "rstrip": false,
      "normalized": false,
      "special": true
    },
    {
      "id": 1,
      "content": "<unk>",
      "single_word": false,
      "lstrip": false,
      "rstrip": false,
      "normalized": false,
      "special": true
    },
    {
      "id": 2,
      "content": "<bos>",
      "single_word": false,
      "lstrip": false,
      "rstrip": false,
      "normalized": false,
      "special": true
    },
    {
      "id": 3,
      "content": "<eos>",
      "single_word": false,
      "lstrip": false,
      "rstrip": false,
      "normalized": false,
      "special": true
    }
  ],
  "normalizer": {
    "type": "Sequence",
    "normalizers": [
      {
        "type": "NFD"
      },
      {
        "type": "Lowercase"
      },
      {
        "type": "StripAccents"
      }
    ]
  },
  "pre_tokenizer": {
    "type": "Whitespace"
  },
  "post_processor": {
    "type": "TemplateProcessing",
    "single": [
      {
        "SpecialToken": {
          "id": "<bos>",
          "type_id": 0
        }
      },
      {
        "Sequence": {
          "id": "A",
          "type_id": 0
        }
      },
      {
        "SpecialToken": {
          "id": "<eos>",
          "type_id": 0
        }
      }
    ],
    "pair": [
      {
        "Sequence": {
          "id": "A",
          "type_id": 0
        }
      },
      {
        "Sequence": {
          "id": "B",
          "type_id": 1
        }
      }
    ],
    "special_tokens": {
      "<bos>": {
        "id": "<bos>",
        "ids": [
          2
        ],
        "tokens": [
          "<bos>"
        ]
      },
      "<eos>": {
        "id": "<eos>",
        "ids": [
          3
        ],
        "tokens": [
          "<eos>"
        ]
      }
    }
  },
  "decoder": null,
  "model": {
    "type": "BPE",
    "dropout": null,
    "unk_token": null,
    "continuing_subword_prefix": null,
    "end_of_word_suffix": null,
    "fuse_unk": false,
    "byte_fallback": false,
    "ignore_merges": false,
    "vocab": {
      "<pad>": 0,
      "<unk>": 1,
      "<bos>": 2,
      "<eos>": 3,
      "%": 4,
      "'": 5,
      "(": 6,
      ")": 7,
      "+": 8,
      ",": 9,
      "-": 10,
      ".": 11,
      "/": 12,
      "0": 13,
      "1": 14,
      "2": 15,
      "3": 16,
      "4": 17,
      "5": 18,
      "6": 19,
      "7": 20,
      "8": 21,
      "9": 22,
      ":": 23,
      ";": 24,
      "=": 25,
      ">": 26,
      "?": 27,
      "^": 28,
      "a": 29,
      "b": 30,
      "c": 31,
      "d": 32,
      "e": 33,
      "f": 34,
      "g": 35,
      "h": 36,
      "i": 37,
      "j": 38,
      "k": 39,
      "l": 40,
      "m": 41,
      "n": 42,
      "o": 43,
      "p": 44,
      "q": 45,
      "r": 46,
      "s": 47,
      "t": 48,
      "u": 49,
      "v": 50,
      "w": 51,
      "x": 52,
      "y": 53,
      "z": 54,
      "°": 55,
      "æ": 56,
      "ø": 57,
      "ħ": 58,
      "ı": 59,
      "ł": 60,
      "–": 61,
      "—": 62,
      "th": 63,
      "the": 64,
      "an": 65,
      "in": 66,
      "on": 67,
      "er": 68,
      "al": 69,
      "at": 70,
      "of": 71,
      "re": 72,
      "en": 73,
      "is": 74,
      "or": 75,
      "it": 76,
      "ion": 77,
      "es": 78,
      "ar": 79,
      "as": 80,
      "ed": 81,
      "ic": 82,
      "ing": 83,
      "and": 84,
      "ent": 85,
      "ro": 86,
      "st": 87,
      "to": 88,
      "ra": 89,
      "ou": 90,
      "el": 91,
      "ation": 92,
      "ol": 93,
      "ur": 94,
      "om": 95,
      "le": 96,
      "im": 97,
      "ch": 98,
      "ge": 99,
      "se": 100,
      "ci": 101,
      "for": 102,
      "ity": 103,
      "was": 104,
      "ct": 105,
      "em": 106,
      "am": 107,
      "il": 108,
      "ow": 109,
      "ter": 110,
      "tra": 111,
      "sp": 112,
      "un": 113,
      "ational": 114,
      "pu": 115,
      "la": 116,
      "ver": 117,
      "ith": 118,
      "by": 119,
      "ition": 120,
      "ce": 121,
      "trad": 122,
      "so": 123,
      "national": 124,
      "with": 125,
      "con": 126,
      "us": 127,
      "bl": 128,
      "oun": 129,
      "cient": 130,
      "tradition": 131,
      "city": 132,
      "man": 133,
      "ig": 134,
      "ian": 135,
      "ot": 136,
      "ancient": 137,
      "ort": 138,
      "traditional": 139,
      "ia": 140,
      "ser": 141,
      "ut": 142,
      "de": 143,
      "wh": 144,
      "ist": 145,
      "iv": 146,
      "that": 147,
      "all": 148,
      "king": 149,
      "ant": 150,
      "et": 151,
      "land": 152,
      "ul": 153,
      "ad": 154,
      "dom": 155,
      "mo": 156,
      "po": 157,
      "its": 158,
      "est": 159,
      "art": 160,
      "co": 161,
      "cent": 162,
      "der": 163,
      "ate": 164,
      "kingdom": 165,
      "ell": 166,
      "yser": 167,
      "geyser": 168,
      "ap": 169,
      "op": 170,
      "qu": 171,
      "ma": 172,
      "publ": 173,
      "public": 174,
      "are": 175,
      "pro": 176,
      "ect": 177,
      "ure": 178,
      "av": 179,
      "up": 180,
      "republic": 181,
      "ab": 182,
      "also": 183,
      "one": 184,
      "lar": 185,
      "be": 186,
      "iz": 187,
      "ph": 188,
      "ine": 189,
      "ke": 190,
      "ex": 191,
      "sport": 192,
      "rom": 193,
      "sea": 194,
      "emp": 195,
      "ir": 196,
      "ly": 197,
      "but": 198,
      "min": 199,
      "ri": 200,
      "ire": 201,
      "wor": 202,
      "li": 203,
      "ast": 204,
      "imal": 205,
      "ther": 206,
      "col": 207,
      "from": 208,
      "over": 209,
      "sy": 210,
      "sh": 211,
      "animal": 212,
      "now": 213,
      "ous": 214,
      "com": 215,
      "um": 216,
      "au": 217,
      "oc": 218,
      "end": 219,
      "ies": 220,
      "ag": 221,
      "igh": 222,
      "ang": 223,
      "centur": 224,
      "ater": 225,
      "ates": 226,
      "id": 227,
      "ount": 228,
      "ron": 229,
      "gh": 230,
      "ne": 231,
      "ement": 232,
      "port": 233,
      "pre": 234,
      "ac": 235,
      "island": 236,
      "du": 237,
      "ain": 238,
      "cre": 239,
      "cla": 240,
      "foun": 241,
      "ment": 242,
      "lear": 243,
      "lu": 244,
      "ive": 245,
      "ions": 246,
      "mic": 247,
      "ult": 248,
      "can": 249,
      "act": 250,
      "ry": 251,
      "ers": 252,
      "form": 253,
      "tern": 254,
      "ory": 255,
      "roman": 256,
      "pl": 257,
      "ning": 258,
      "empire": 259,
      "od": 260,
      "ess": 261,
      "ay": 262,
      "ated": 263,
      "bas": 264,
      "cont": 265,
      "age": 266,
      "ld": 267,
      "ence": 268,
      "ich": 269,
      "upt": 270,
      "count": 271,
      "me": 272,
      "inter": 273,
      "erupt": 274,
      "ss": 275,
      "world": 276,
      "dis": 277,
      "pr": 278,
      "pe": 279,
      "mal": 280,
      "other": 281,
      "ica": 282,
      "str": 283,
      "ized": 284,
      "19": 285,
      "su": 286,
      "te": 287,
      "has": 288,
      "out": 289,
      "ial": 290,
      "sc": 291,
      "import": 292,
      "nam": 293,
      "century": 294,
      "ating": 295,
      "ature": 296,
      "ded": 297,
      "fo": 298,
      "know": 299,
      "which": 300,
      "yell": 301,
      "yellow": 302,
      "ding": 303,
      "important": 304,
      "ff": 305,
      "stone": 306,
      "learning": 307,
      "ip": 308,
      "ear": 309,
      "gn": 310,
      "claim": 311,
      "br": 312,
      "ign": 313,
      "known": 314,
      "mov": 315,
      "bu": 316,
      "fe": 317,
      "ight": 318,
      "ber": 319,
      "af": 320,
      "per": 321,
      "country": 322,
      "yellowstone": 323,
      "ck": 324,
      "ite": 325,
      "ary": 326,
      "sm": 327,
      "ical": 328,
      "ital": 329,
      "gre": 330,
      "lo": 331,
      "geother": 332,
      "dep": 333,
      "popu": 334,
      "geothermal": 335,
      "ev": 336,
      "micron": 337,
      "larg": 338,
      "des": 339,
      "center": 340,
      "he": 341,
      "part": 342,
      "ind": 343,
      "ins": 344,
      "ak": 345,
      "fre": 346,
      "gover": 347,
      "les": 348,
      "govern": 349,
      "depend": 350,
      "no": 351,
      "tur": 352,
      "ations": 353,
      "ural": 354,
      "key": 355,
      "bol": 356,
      "ten": 357,
      "stem": 358,
      "system": 359,
      "sou": 360,
      "red": 361,
      "hist": 362,
      "we": 363,
      "independ": 364,
      "ish": 365,
      "ors": 366,
      "rou": 367,
      "states": 368,
      "amer": 369,
      "buil": 370,
      "small": 371,
      "rough": 372,
      "eruptions": 373,
      "popular": 374,
      "gro": 375,
      "water": 376,
      "eng": 377,
      "serv": 378,
      "nor": 379,
      "ong": 380,
      "movement": 381,
      "ican": 382,
      "pol": 383,
      "vol": 384,
      "del": 385,
      "not": 386,
      "reg": 387,
      "gr": 388,
      "gra": 389,
      "ru": 390,
      "di": 391,
      "ters": 392,
      "prin": 393,
      "government": 394,
      "ball": 395,
      "cult": 396,
      "hav": 397,
      "ue": 398,
      "reco": 399,
      "used": 400,
      "pow": 401,
      "ise": 402,
      "recogn": 403,
      "cap": 404,
      "que": 405,
      "independence": 406,
      "state": 407,
      "forc": 408,
      "uni": 409,
      "when": 410,
      "like": 411,
      "history": 412,
      "mar": 413,
      "ance": 414,
      "cl": 415,
      "pt": 416,
      "ange": 417,
      "soci": 418,
      "sym": 419,
      "fi": 420,
      "symbol": 421,
      "cess": 422,
      "rit": 423,
      "inc": 424,
      "ction": 425,
      "ty": 426,
      "vel": 427,
      "through": 428,
      "ere": 429,
      "agent": 430,
      "med": 431,
      "eff": 432,
      "ted": 433,
      "rel": 434,
      "ism": 435,
      "ists": 436,
      "work": 437,
      "founder": 438,
      "recognized": 439,
      "hol": 440,
      "ple": 441,
      "fam": 442,
      "og": 443,
      "who": 444,
      "ape": 445,
      "colon": 446,
      "austr": 447,
      "islands": 448,
      "hot": 449,
      "zant": 450,
      "ics": 451,
      "byzant": 452,
      "largest": 453,
      "princi": 454,
      "fic": 455,
      "hu": 456,
      "low": 457,
      "ta": 458,
      "comm": 459,
      "byzantine": 460,
      "ina": 461,
      "cur": 462,
      "ger": 463,
      "si": 464,
      "ome": 465,
      "ca": 466,
      "vis": 467,
      "eld": 468,
      "seal": 469,
      "contin": 470,
      "eign": 471,
      "into": 472,
      "roy": 473,
      "vereign": 474,
      "sovereign": 475,
      "foot": 476,
      "effect": 477,
      "car": 478,
      "und": 479,
      "austral": 480,
      "rema": 481,
      "law": 482,
      "centuries": 483,
      "founded": 484,
      "built": 485,
      "jor": 486,
      "rist": 487,
      "sur": 488,
      "model": 489,
      "post": 490,
      "power": 491,
      "loc": 492,
      "mult": 493,
      "ely": 494,
      "00": 495,
      "bla": 496,
      "gen": 497,
      "christ": 498,
      "unique": 499,
      "inclu": 500,
      "lang": 501,
      "pal": 502,
      "war": 503,
      "put": 504,
      "ily": 505,
      "pool": 506,
      "continu": 507,
      "eu": 508,
      "ative": 509,
      "our": 510,
      "langu": 511,
      "ban": 512,
      "inforc": 513,
      "reinforc": 514,
      "ivity": 515,
      "pos": 516,
      "black": 517,
      "reinforcement": 518,
      "18": 519,
      "ib": 520,
      "mu": 521,
      "they": 522,
      "ond": 523,
      "phil": 524,
      "ach": 525,
      "lit": 526,
      "ref": 527,
      "ound": 528,
      "dern": 529,
      "german": 530,
      "christian": 531,
      "bet": 532,
      "way": 533,
      "ass": 534,
      "lect": 535,
      "prot": 536,
      "ace": 537,
      "cel": 538,
      "high": 539,
      "ile": 540,
      "olis": 541,
      "ame": 542,
      "language": 543,
      "line": 544,
      "ore": 545,
      "ran": 546,
      "temp": 547,
      "ren": 548,
      "ene": 549,
      "modern": 550,
      "later": 551,
      "sa": 552,
      "spr": 553,
      "const": 554,
      "ween": 555,
      "between": 556,
      "mil": 557,
      "read": 558,
      "change": 559,
      "many": 560,
      "opolis": 561,
      "major": 562,
      "afr": 563,
      "arch": 564,
      "char": 565,
      "new": 566,
      "region": 567,
      "bo": 568,
      "pla": 569,
      "tim": 570,
      "ally": 571,
      "color": 572,
      "micronation": 573,
      "bor": 574,
      "dy": 575,
      "ese": 576,
      "most": 577,
      "based": 578,
      "atures": 579,
      "grand": 580,
      "human": 581,
      "call": 582,
      "dest": 583,
      "ful": 584,
      "light": 585,
      "sol": 586,
      "ve": 587,
      "micro": 588,
      "culture": 589,
      "have": 590,
      "ae": 591,
      "ath": 592,
      "dan": 593,
      "ious": 594,
      "liv": 595,
      "nat": 596,
      "olog": 597,
      "blue": 598,
      "create": 599,
      "turkey": 600,
      "football": 601,
      "ens": 602,
      "after": 603,
      "bial": 604,
      "cor": 605,
      "ste": 606,
      "tour": 607,
      "american": 608,
      "capital": 609,
      "field": 610,
      "australia": 611,
      "remains": 612,
      "cele": 613,
      "natural": 614,
      "0s": 615,
      "par": 616,
      "ts": 617,
      "remin": 618,
      "urch": 619,
      "church": 620,
      "lag": 621,
      "oper": 622,
      "phy": 623,
      "activity": 624,
      "reminder": 625,
      "wil": 626,
      "west": 627,
      "coast": 628,
      "fore": 629,
      "fin": 630,
      "how": 631,
      "net": 632,
      "ric": 633,
      "vent": 634,
      "there": 635,
      "ility": 636,
      "dist": 637,
      "flu": 638,
      "rus": 639,
      "elect": 640,
      "named": 641,
      "partic": 642,
      "principal": 643,
      "celebr": 644,
      "bir": 645,
      "ier": 646,
      "ob": 647,
      "ice": 648,
      "where": 649,
      "ected": 650,
      "miner": 651,
      "19th": 652,
      "earth": 653,
      "early": 654,
      "served": 655,
      "commun": 656,
      "site": 657,
      "meters": 658,
      "east": 659,
      "flag": 660,
      "ks": 661,
      "pa": 662,
      "sun": 663,
      "sup": 664,
      "around": 665,
      "very": 666,
      "minut": 667,
      "features": 668,
      "great": 669,
      "continuous": 670,
      "principality": 671,
      "long": 672,
      "mount": 673,
      "oss": 674,
      "pat": 675,
      "imate": 676,
      "exam": 677,
      "royal": 678,
      "multi": 679,
      "constant": 680,
      "fer": 681,
      "gan": 682,
      "mus": 683,
      "tw": 684,
      "itary": 685,
      "chy": 686,
      "ization": 687,
      "duchy": 688,
      "america": 689,
      "fl": 690,
      "wed": 691,
      "ana": 692,
      "often": 693,
      "ough": 694,
      "bles": 695,
      "ular": 696,
      "grow": 697,
      "visit": 698,
      "dic": 699,
      "eas": 700,
      "his": 701,
      "sinter": 702,
      "attra": 703,
      "iss": 704,
      "rot": 705,
      "chn": 706,
      "able": 707,
      "bec": 708,
      "river": 709,
      "techn": 710,
      "military": 711,
      "ble": 712,
      "dat": 713,
      "ral": 714,
      "ting": 715,
      "ual": 716,
      "cond": 717,
      "otto": 718,
      "landsc": 719,
      "cooper": 720,
      "magn": 721,
      "thern": 722,
      "formation": 723,
      "example": 724,
      "ait": 725,
      "bac": 726,
      "cit": 727,
      "ced": 728,
      "int": 729,
      "erg": 730,
      "ited": 731,
      "secess": 732,
      "ill": 733,
      "cean": 734,
      "luc": 735,
      "sudan": 736,
      "gree": 737,
      "spring": 738,
      "africa": 739,
      "border": 740,
      "living": 741,
      "visitors": 742,
      "secession": 743,
      "own": 744,
      "large": 745,
      "press": 746,
      "created": 747,
      "north": 748,
      "euro": 749,
      "pattern": 750,
      "bod": 751,
      "da": 752,
      "gal": 753,
      "gas": 754,
      "had": 755,
      "mon": 756,
      "sk": 757,
      "some": 758,
      "vi": 759,
      "under": 760,
      "preserved": 761,
      "terna": 762,
      "base": 763,
      "south": 764,
      "family": 765,
      "aeterna": 766,
      "community": 767,
      "lucina": 768,
      "coun": 769,
      "last": 770,
      "att": 771,
      "whe": 772,
      "ended": 773,
      "due": 774,
      "liter": 775,
      "landscape": 776,
      "europe": 777,
      "bal": 778,
      "ef": 779,
      "iev": 780,
      "their": 781,
      "orig": 782,
      "arian": 783,
      "ross": 784,
      "ela": 785,
      "uring": 786,
      "blo": 787,
      "dome": 788,
      "shape": 789,
      "ruins": 790,
      "called": 791,
      "mountain": 792,
      "ottoman": 793,
      "20": 794,
      "ba": 795,
      "bed": 796,
      "ces": 797,
      "fun": 798,
      "go": 799,
      "gu": 800,
      "ium": 801,
      "though": 802,
      "res": 803,
      "rock": 804,
      "stre": 805,
      "devel": 806,
      "pres": 807,
      "agents": 808,
      "famous": 809,
      "reflect": 810,
      "germanic": 811,
      "minute": 812,
      "eastern": 813,
      "attract": 814,
      "magnet": 815,
      "back": 816,
      "origin": 817,
      "develop": 818,
      "bell": 819,
      "cy": 820,
      "cri": 821,
      "ean": 822,
      "fan": 823,
      "fur": 824,
      "nature": 825,
      "ov": 826,
      "tre": 827,
      "online": 828,
      "asian": 829,
      "territ": 830,
      "spread": 831,
      "dered": 832,
      "ages": 833,
      "formed": 834,
      "claims": 835,
      "claimed": 836,
      "gram": 837,
      "philip": 838,
      "russ": 839,
      "cu": 840,
      "den": 841,
      "every": 842,
      "hel": 843,
      "ject": 844,
      "sal": 845,
      "sim": 846,
      "ents": 847,
      "ution": 848,
      "central": 849,
      "life": 850,
      "indian": 851,
      "mark": 852,
      "gener": 853,
      "dynam": 854,
      "network": 855,
      "cooperation": 856,
      "bel": 857,
      "dates": 858,
      "fall": 859,
      "her": 860,
      "ps": 861,
      "pers": 862,
      "tal": 863,
      "real": 864,
      "asia": 865,
      "rare": 866,
      "cil": 867,
      "consi": 868,
      "produ": 869,
      "sour": 870,
      "time": 871,
      "data": 872,
      "day": 873,
      "fol": 874,
      "mot": 875,
      "want": 876,
      "stat": 877,
      "ram": 878,
      "rain": 879,
      "sem": 880,
      "sever": 881,
      "area": 882,
      "program": 883,
      "team": 884,
      "cultural": 885,
      "microbial": 886,
      "ology": 887,
      "rotating": 888,
      "philipp": 889,
      "several": 890,
      "aut": 891,
      "cav": 892,
      "ds": 893,
      "io": 894,
      "mor": 895,
      "unt": 896,
      "union": 897,
      "about": 898,
      "ribut": 899,
      "micronational": 900,
      "located": 901,
      "greek": 902,
      "body": 903,
      "10": 904,
      "cing": 905,
      "fa": 906,
      "fir": 907,
      "hor": 908,
      "pet": 909,
      "pain": 910,
      "tran": 911,
      "ves": 912,
      "tow": 913,
      "omen": 914,
      "space": 915,
      "without": 916,
      "ada": 917,
      "cover": 918,
      "disput": 919,
      "italy": 920,
      "largely": 921,
      "social": 922,
      "colonies": 923,
      "coral": 924,
      "council": 925,
      "function": 926,
      "considered": 927,
      "first": 928,
      "disputes": 929,
      "14": 930,
      "aw": 931,
      "az": 932,
      "cer": 933,
      "during": 934,
      "fron": 935,
      "gian": 936,
      "por": 937,
      "tex": 938,
      "val": 939,
      "organ": 940,
      "ara": 941,
      "associ": 942,
      "spe": 943,
      "iron": 944,
      "predic": 945,
      "two": 946,
      "front": 947,
      "bre": 948,
      "bian": 949,
      "hoc": 950,
      "os": 951,
      "ped": 952,
      "rat": 953,
      "va": 954,
      "invol": 955,
      "enomen": 956,
      "arding": 957,
      "ick": 958,
      "star": 959,
      "stra": 960,
      "china": 961,
      "train": 962,
      "iance": 963,
      "decla": 964,
      "alliance": 965,
      "artists": 966,
      "ability": 967,
      "phenomen": 968,
      "stru": 969,
      "climate": 970,
      "source": 971,
      "until": 972,
      "frontier": 973,
      "mat": 974,
      "mol": 975,
      "sar": 976,
      "tor": 977,
      "tus": 978,
      "test": 979,
      "var": 980,
      "won": 981,
      "wes": 982,
      "well": 983,
      "wav": 984,
      "ones": 985,
      "raise": 986,
      "sex": 987,
      "ament": 988,
      "prov": 989,
      "plan": 990,
      "descri": 991,
      "northern": 992,
      "polic": 993,
      "phys": 994,
      "reflecting": 995,
      "development": 996,
      "hockey": 997,
      "cell": 998,
      "cli": 999,
      "dell": 1000,
      "flow": 1001,
      "lion": 1002,
      "nar": 1003,
      "ocean": 1004,
      "pon": 1005,
      "sil": 1006,
      "xon": 1007,
      "year": 1008,
      "issu": 1009,
      "lead": 1010,
      "set": 1011,
      "sev": 1012,
      "mach": 1013,
      "bean": 1014,
      "across": 1015,
      "name": 1016,
      "bermu": 1017,
      "free": 1018,
      "group": 1019,
      "polis": 1020,
      "music": 1021,
      "weddell": 1022,
      "magnetic": 1023,
      "philippine": 1024,
      "phenomenon": 1025,
      "bermuda": 1026,
      "bes": 1027,
      "son": 1028,
      "als": 1029,
      "ray": 1030,
      "conn": 1031,
      "depos": 1032,
      "white": 1033,
      "ople": 1034,
      "minis": 1035,
      "ship": 1036,
      "creating": 1037,
      "acter": 1038,
      "plat": 1039,
      "sub": 1040,
      "building": 1041,
      "play": 1042,
      "fluid": 1043,
      "technology": 1044,
      "wonder": 1045,
      "don": 1046,
      "ew": 1047,
      "nic": 1048,
      "eror": 1049,
      "resem": 1050,
      "omet": 1051,
      "itions": 1052,
      "trade": 1053,
      "uses": 1054,
      "istan": 1055,
      "beaut": 1056,
      "exist": 1057,
      "emperor": 1058,
      "colors": 1059,
      "occur": 1060,
      "temper": 1061,
      "saxon": 1062,
      "present": 1063,
      "declared": 1064,
      "struct": 1065,
      "platform": 1066,
      "bi": 1067,
      "dra": 1068,
      "glo": 1069,
      "har": 1070,
      "ide": 1071,
      "mp": 1072,
      "nation": 1073,
      "ok": 1074,
      "py": 1075,
      "pin": 1076,
      "rian": 1077,
      "sis": 1078,
      "enk": 1079,
      "ional": 1080,
      "rose": 1081,
      "element": 1082,
      "omic": 1083,
      "ush": 1084,
      "using": 1085,
      "rong": 1086,
      "contro": 1087,
      "akh": 1088,
      "stream": 1089,
      "dynamics": 1090,
      "folk": 1091,
      "covered": 1092,
      "association": 1093,
      "predict": 1094,
      "machine": 1095,
      "global": 1096,
      "ep": 1097,
      "fra": 1098,
      "hous": 1099,
      "nia": 1100,
      "ris": 1101,
      "riv": 1102,
      "sed": 1103,
      "sch": 1104,
      "sau": 1105,
      "tain": 1106,
      "writ": 1107,
      "yor": 1108,
      "any": 1109,
      "only": 1110,
      "ale": 1111,
      "strong": 1112,
      "process": 1113,
      "been": 1114,
      "before": 1115,
      "collect": 1116,
      "shap": 1117,
      "never": 1118,
      "freed": 1119,
      "mediev": 1120,
      "carib": 1121,
      "local": 1122,
      "minerva": 1123,
      "earthqu": 1124,
      "territory": 1125,
      "persian": 1126,
      "giant": 1127,
      "texas": 1128,
      "cliff": 1129,
      "medieval": 1130,
      "caribbean": 1131,
      "bra": 1132,
      "clear": 1133,
      "god": 1134,
      "ific": 1135,
      "lat": 1136,
      "mel": 1137,
      "nch": 1138,
      "nav": 1139,
      "oso": 1140,
      "sign": 1141,
      "ase": 1142,
      "roun": 1143,
      "stell": 1144,
      "see": 1145,
      "seum": 1146,
      "emis": 1147,
      "plant": 1148,
      "peri": 1149,
      "design": 1150,
      "having": 1151,
      "caused": 1152,
      "royed": 1153,
      "sovereignty": 1154,
      "destroyed": 1155,
      "object": 1156,
      "became": 1157,
      "years": 1158,
      "connect": 1159,
      "control": 1160,
      ").": 1161,
      "cot": 1162,
      "econ": 1163,
      "foc": 1164,
      "hut": 1165,
      "sam": 1166,
      "were": 1167,
      "icated": 1168,
      "story": 1169,
      "ley": 1170,
      "adv": 1171,
      "opal": 1172,
      "anglo": 1173,
      "prim": 1174,
      "heart": 1175,
      "frequ": 1176,
      "ground": 1177,
      "england": 1178,
      "grav": 1179,
      "surroun": 1180,
      "include": 1181,
      "philoso": 1182,
      "support": 1183,
      "involves": 1184,
      "shaped": 1185,
      "freedom": 1186,
      ",'": 1187,
      "gby": 1188,
      "ior": 1189,
      "jew": 1190,
      "mur": 1191,
      "oise": 1192,
      "tas": 1193,
      "viron": 1194,
      "wind": 1195,
      "ination": 1196,
      "alg": 1197,
      "environ": 1198,
      "ard": 1199,
      "asc": 1200,
      "spect": 1201,
      "conqu": 1202,
      "ulpt": 1203,
      "quick": 1204,
      "quoise": 1205,
      "ared": 1206,
      "abs": 1207,
      "abstra": 1208,
      "liber": 1209,
      "ause": 1210,
      "learn": 1211,
      "plic": 1212,
      "dispu": 1213,
      "scot": 1214,
      "sculpt": 1215,
      "micronations": 1216,
      "french": 1217,
      "turquoise": 1218,
      "rugby": 1219,
      "media": 1220,
      "protect": 1221,
      "temple": 1222,
      "tourist": 1223,
      "russian": 1224,
      "trans": 1225,
      "various": 1226,
      "pontus": 1227,
      "issues": 1228,
      "environment": 1229,
      "sculpture": 1230,
      "ais": 1231,
      "equ": 1232,
      "fav": 1233,
      "face": 1234,
      "gay": 1235,
      "hit": 1236,
      "lond": 1237,
      "ms": 1238,
      "mer": 1239,
      "pil": 1240,
      "past": 1241,
      "rul": 1242,
      "tit": 1243,
      "wy": 1244,
      "thor": 1245,
      "thod": 1246,
      "theater": 1247,
      "anem": 1248,
      "oned": 1249,
      "represent": 1250,
      "road": 1251,
      "sty": 1252,
      "sten": 1253,
      "elle": 1254,
      "level": 1255,
      "cial": 1256,
      "cific": 1257,
      "ilar": 1258,
      "spa": 1259,
      "pump": 1260,
      "conch": 1261,
      "ety": 1262,
      "ests": 1263,
      "artemis": 1264,
      "exp": 1265,
      "shell": 1266,
      "canada": 1267,
      "active": 1268,
      "romans": 1269,
      "contain": 1270,
      "ights": 1271,
      "caes": 1272,
      "sealand": 1273,
      "warri": 1274,
      "museum": 1275,
      "christianity": 1276,
      "wild": 1277,
      "forest": 1278,
      "flor": 1279,
      "conditions": 1280,
      "pression": 1281,
      "similar": 1282,
      "taloss": 1283,
      "testament": 1284,
      "western": 1285,
      "describes": 1286,
      "resembles": 1287,
      "structure": 1288,
      "economic": 1289,
      "jewel": 1290,
      "quickly": 1291,
      "favor": 1292,
      "london": 1293,
      "15": 1294,
      "aer": 1295,
      "bar": 1296,
      "bing": 1297,
      "eth": 1298,
      "fut": 1299,
      "fland": 1300,
      "hun": 1301,
      "hum": 1302,
      "home": 1303,
      "hour": 1304,
      "if": 1305,
      "ket": 1306,
      "ness": 1307,
      "ool": 1308,
      "pri": 1309,
      "pass": 1310,
      "same": 1311,
      "tav": 1312,
      "wait": 1313,
      "ziv": 1314,
      "ines": 1315,
      "ered": 1316,
      "ering": 1317,
      "reach": 1318,
      "enenk": 1319,
      "itect": 1320,
      "arct": 1321,
      "arab": 1322,
      "stability": 1323,
      "toise": 1324,
      "rawarri": 1325,
      "geais": 1326,
      "embas": 1327,
      "spray": 1328,
      "united": 1329,
      "ads": 1330,
      "cospa": 1331,
      "quant": 1332,
      "shar": 1333,
      "comet": 1334,
      "author": 1335,
      "austen": 1336,
      "ida": 1337,
      "dish": 1338,
      "discovered": 1339,
      "dedicated": 1340,
      "even": 1341,
      "heat": 1342,
      "akes": 1343,
      "lesbian": 1344,
      "forces": 1345,
      "relation": 1346,
      "tawil": 1347,
      "laws": 1348,
      "multip": 1349,
      "included": 1350,
      "rensis": 1351,
      "architect": 1352,
      "ossia": 1353,
      "hadrian": 1354,
      "wheel": 1355,
      "literary": 1356,
      "blood": 1357,
      "20th": 1358,
      "status": 1359,
      "horse": 1360,
      "molossia": 1361,
      "tortoise": 1362,
      "silica": 1363,
      "pinwheel": 1364,
      "akhziv": 1365,
      "sedang": 1366,
      "saugeais": 1367,
      "hutt": 1368,
      "frequent": 1369,
      "murrawarri": 1370,
      "elleore": 1371,
      "florida": 1372,
      "aerican": 1373,
      "flandrensis": 1374,
      "enenkio": 1375,
      "embassy": 1376,
      "cospaia": 1377,
      "akhzivland": 1378,
      "bur": 1379,
      "ciss": 1380,
      "dol": 1381,
      "dess": 1382,
      "down": 1383,
      "fr": 1384,
      "gul": 1385,
      "gang": 1386,
      "held": 1387,
      "lim": 1388,
      "late": 1389,
      "less": 1390,
      "my": 1391,
      "ner": 1392,
      "sel": 1393,
      "tar": 1394,
      "uk": 1395,
      "udi": 1396,
      "zela": 1397,
      "ann": 1398,
      "ons": 1399,
      "aling": 1400,
      "energ": 1401,
      "orate": 1402,
      "itene": 1403,
      "topolis": 1404,
      "racing": 1405,
      "olara": 1406,
      "urium": 1407,
      "chin": 1408,
      "chait": 1409,
      "sebas": 1410,
      "amast": 1411,
      "ladon": 1412,
      "manent": 1413,
      "kings": 1414,
      "promot": 1415,
      "avram": 1416,
      "aband": 1417,
      "rome": 1418,
      "ries": 1419,
      "comes": 1420,
      "ghrat": 1421,
      "found": 1422,
      "ples": 1423,
      "meads": 1424,
      "brush": 1425,
      "permanent": 1426,
      "boliv": 1427,
      "redond": 1428,
      "serve": 1429,
      "tyana": 1430,
      "colonia": 1431,
      "euchait": 1432,
      "humanity": 1433,
      "bluebell": 1434,
      "particles": 1435,
      "growing": 1436,
      "germanicopolis": 1437,
      "helped": 1438,
      "morac": 1439,
      "provin": 1440,
      "narciss": 1441,
      "songhrat": 1442,
      "yora": 1443,
      "goddess": 1444,
      "latin": 1445,
      "melitene": 1446,
      "period": 1447,
      "connecting": 1448,
      "cotyora": 1449,
      "anemurium": 1450,
      "caesarea": 1451,
      "talossan": 1452,
      "tavolara": 1453,
      "quantum": 1454,
      "austenasia": 1455,
      "multiple": 1456,
      "hadrianopolis": 1457,
      "gulf": 1458,
      "gangra": 1459,
      "sebastopolis": 1460,
      "amastris": 1461,
      "ladonia": 1462,
      "redonda": 1463,
      "euchaita": 1464,
      "narcissus": 1465,
      "songhrati": 1466,
      "),": 1467,
      "12": 1468,
      "17": 1469,
      "dig": 1470,
      "eur": 1471,
      "fac": 1472,
      "fund": 1473,
      "hy": 1474,
      "iful": 1475,
      "ji": 1476,
      "jan": 1477,
      "lish": 1478,
      "pak": 1479,
      "slow": 1480,
      "zus": 1481,
      "inten": 1482,
      "inople": 1483,
      "atter": 1484,
      "iter": 1485,
      "ities": 1486,
      "edia": 1487,
      "stop": 1488,
      "outer": 1489,
      "omedia": 1490,
      "image": 1491,
      "trape": 1492,
      "spouter": 1493,
      "lake": 1494,
      "labial": 1495,
      "conver": 1496,
      "ady": 1497,
      "admin": 1498,
      "aborigin": 1499,
      "lars": 1500,
      "ired": 1501,
      "lips": 1502,
      "claudi": 1503,
      "peak": 1504,
      "scatter": 1505,
      "moved": 1506,
      "english": 1507,
      "volcan": 1508,
      "society": 1509,
      "throughout": 1510,
      "australian": 1511,
      "surface": 1512,
      "powerful": 1513,
      "bank": 1514,
      "germanica": 1515,
      "protest": 1516,
      "protected": 1517,
      "ready": 1518,
      "park": 1519,
      "celebrates": 1520,
      "constantinople": 1521,
      "growth": 1522,
      "denmark": 1523,
      "physics": 1524,
      "nicomedia": 1525,
      "beautiful": 1526,
      "school": 1527,
      "naval": 1528,
      "absor": 1529,
      "artemisia": 1530,
      "favorite": 1531,
      "relationship": 1532,
      "energy": 1533,
      "chinese": 1534,
      "abandoned": 1535,
      "trapezus": 1536,
      "aboriginal": 1537,
      "claudiopolis": 1538,
      "13": 1539,
      "bility": 1540,
      "fine": 1541,
      "hund": 1542,
      "iop": 1543,
      "ming": 1544,
      "mass": 1545,
      "nations": 1546,
      "oa": 1547,
      "ox": 1548,
      "pot": 1549,
      "rights": 1550,
      "scient": 1551,
      "tic": 1552,
      "eded": 1553,
      "ander": 1554,
      "ention": 1555,
      "rail": 1556,
      "chan": 1557,
      "cia": 1558,
      "cept": 1559,
      "trading": 1560,
      "istr": 1561,
      "allow": 1562,
      "artwork": 1563,
      "make": 1564,
      "needed": 1565,
      "action": 1566,
      "india": 1567,
      "systems": 1568,
      "volley": 1569,
      "note": 1570,
      "hold": 1571,
      "sier": 1572,
      "footnote": 1573,
      "character": 1574,
      "regional": 1575,
      "steady": 1576,
      "mineral": 1577,
      "ference": 1578,
      "citiz": 1579,
      "erged": 1580,
      "attention": 1581,
      "literature": 1582,
      "resid": 1583,
      "value": 1584,
      "wave": 1585,
      "policy": 1586,
      "deposition": 1587,
      "predictable": 1588,
      "earthquakes": 1589,
      "ethiop": 1590,
      "humor": 1591,
      "hundred": 1592,
      "volleyball": 1593,
      "61": 1594,
      "bon": 1595,
      "cle": 1596,
      "each": 1597,
      "hon": 1598,
      "mater": 1599,
      "tro": 1600,
      "tel": 1601,
      "tarian": 1602,
      "uela": 1603,
      "vene": 1604,
      "zuela": 1605,
      "intern": 1606,
      "instability": 1607,
      "atol": 1608,
      "atly": 1609,
      "offic": 1610,
      "rest": 1611,
      "chall": 1612,
      "geon": 1613,
      "cilit": 1614,
      "spir": 1615,
      "mant": 1616,
      "oples": 1617,
      "izing": 1618,
      "angle": 1619,
      "method": 1620,
      "peoples": 1621,
      "lore": 1622,
      "diff": 1623,
      "powers": 1624,
      "posed": 1625,
      "linear": 1626,
      "spratly": 1627,
      "sold": 1628,
      "churches": 1629,
      "birth": 1630,
      "because": 1631,
      "cities": 1632,
      "patterns": 1633,
      "teams": 1634,
      "facilit": 1635,
      "mats": 1636,
      "draw": 1637,
      "folklore": 1638,
      "rives": 1639,
      "advoc": 1640,
      "surrounded": 1641,
      "philosophy": 1642,
      "supports": 1643,
      "protection": 1644,
      "style": 1645,
      "expected": 1646,
      "pride": 1647,
      "eurasian": 1648,
      "pakistan": 1649,
      "intense": 1650,
      "administr": 1651,
      "scattering": 1652,
      "absorbed": 1653,
      "relationships": 1654,
      "railway": 1655,
      "ethiopia": 1656,
      "hundreds": 1657,
      "material": 1658,
      "venezuela": 1659,
      "1st": 1660,
      "ai": 1661,
      "bith": 1662,
      "cal": 1663,
      "crit": 1664,
      "dor": 1665,
      "dry": 1666,
      "ey": 1667,
      "fig": 1668,
      "gol": 1669,
      "oese": 1670,
      "sage": 1671,
      "uary": 1672,
      "ynia": 1673,
      "inct": 1674,
      "influ": 1675,
      "off": 1676,
      "isions": 1677,
      "orith": 1678,
      "andean": 1679,
      "stur": 1680,
      "radi": 1681,
      "legal": 1682,
      "chap": 1683,
      "second": 1684,
      "condu": 1685,
      "traditions": 1686,
      "istic": 1687,
      "pod": 1688,
      "elling": 1689,
      "appro": 1690,
      "ops": 1691,
      "made": 1692,
      "updates": 1693,
      "exchange": 1694,
      "ird": 1695,
      "augh": 1696,
      "contribut": 1697,
      "nament": 1698,
      "ighting": 1699,
      "heav": 1700,
      "nobility": 1701,
      "independent": 1702,
      "notes": 1703,
      "mediter": 1704,
      "commem": 1705,
      "remain": 1706,
      "bans": 1707,
      "18th": 1708,
      "christians": 1709,
      "ranean": 1710,
      "african": 1711,
      "both": 1712,
      "sunlight": 1713,
      "cuba": 1714,
      "general": 1715,
      "towering": 1716,
      "temperature": 1717,
      "samoa": 1718,
      "algorith": 1719,
      "libertarian": 1720,
      "pilgr": 1721,
      "titles": 1722,
      "sharing": 1723,
      "province": 1724,
      "slowly": 1725,
      "banknotes": 1726,
      "citizens": 1727,
      "honor": 1728,
      "bithynia": 1729,
      "dormant": 1730,
      "sagebrush": 1731,
      "sturgeon": 1732,
      "mediterranean": 1733,
      "600": 1734,
      "abl": 1735,
      "band": 1736,
      "bene": 1737,
      "cry": 1738,
      "dire": 1739,
      "fasc": 1740,
      "gy": 1741,
      "gam": 1742,
      "got": 1743,
      "hip": 1744,
      "jap": 1745,
      "led": 1746,
      "mem": 1747,
      "mex": 1748,
      "oy": 1749,
      "pur": 1750,
      "sing": 1751,
      "somet": 1752,
      "ton": 1753,
      "xim": 1754,
      "ze": 1755,
      "thrives": 1756,
      "inating": 1757,
      "atic": 1758,
      "reve": 1759,
      "renamed": 1760,
      "rebell": 1761,
      "reserve": 1762,
      "enu": 1763,
      "imes": 1764,
      "unclaimed": 1765,
      "unpredictable": 1766,
      "otas": 1767,
      "otted": 1768,
      "what": 1769,
      "lands": 1770,
      "adding": 1771,
      "applic": 1772,
      "quotas": 1773,
      "areness": 1774,
      "phas": 1775,
      "miners": 1776,
      "ending": 1777,
      "creates": 1778,
      "creative": 1779,
      "mechan": 1780,
      "interference": 1781,
      "erupted": 1782,
      "display": 1783,
      "primate": 1784,
      "197": 1785,
      "susp": 1786,
      "outpost": 1787,
      "bering": 1788,
      "event": 1789,
      "deser": 1790,
      "governance": 1791,
      "engages": 1792,
      "ongo": 1793,
      "governmental": 1794,
      "clim": 1795,
      "hole": 1796,
      "hotsk": 1797,
      "principles": 1798,
      "curren": 1799,
      "continues": 1800,
      "refers": 1801,
      "calls": 1802,
      "destination": 1803,
      "tournament": 1804,
      "pacific": 1805,
      "anahit": 1806,
      "gasso": 1807,
      "wheat": 1808,
      "bloom": 1809,
      "mountains": 1810,
      "germanicus": 1811,
      "spreading": 1812,
      "realized": 1813,
      "wanted": 1814,
      "programming": 1815,
      "painting": 1816,
      "councils": 1817,
      "awareness": 1818,
      "azov": 1819,
      "sargasso": 1820,
      "flowers": 1821,
      "seven": 1822,
      "existed": 1823,
      "okhotsk": 1824,
      "housed": 1825,
      "ificant": 1826,
      "significant": 1827,
      "spectac": 1828,
      "wildflowers": 1829,
      "authority": 1830,
      "tarsier": 1831,
      "faced": 1832,
      "converted": 1833,
      "characterized": 1834,
      "residents": 1835,
      "telev": 1836,
      "challeng": 1837,
      "facilitating": 1838,
      "eyes": 1839,
      "pilgrimage": 1840,
      "beneath": 1841,
      "sometimes": 1842,
      "rebellion": 1843,
      "anahita": 1844,
      "bro": 1845,
      "bile": 1846,
      "dotted": 1847,
      "ga": 1848,
      "hab": 1849,
      "iar": 1850,
      "ibles": 1851,
      "ligh": 1852,
      "mid": 1853,
      "num": 1854,
      "nests": 1855,
      "selling": 1856,
      "taugh": 1857,
      "winter": 1858,
      "than": 1859,
      "insp": 1860,
      "reef": 1861,
      "recalls": 1862,
      "ingenu": 1863,
      "ouin": 1864,
      "seab": 1865,
      "forts": 1866,
      "forgot": 1867,
      "emon": 1868,
      "emphas": 1869,
      "unexpected": 1870,
      "concept": 1871,
      "ets": 1872,
      "arted": 1873,
      "open": 1874,
      "ize": 1875,
      "short": 1876,
      "comb": 1877,
      "comple": 1878,
      "again": 1879,
      "iday": 1880,
      "duke": 1881,
      "founding": 1882,
      "interior": 1883,
      "intergovernmental": 1884,
      "strange": 1885,
      "ipate": 1886,
      "brit": 1887,
      "italian": 1888,
      "desire": 1889,
      "web": 1890,
      "delighting": 1891,
      "regarding": 1892,
      "captain": 1893,
      "fiji": 1894,
      "holding": 1895,
      "holiday": 1896,
      "curious": 1897,
      "000": 1898,
      "genoese": 1899,
      "charter": 1900,
      "place": 1901,
      "steam": 1902,
      "tourists": 1903,
      "distribut": 1904,
      "participate": 1905,
      "super": 1906,
      "european": 1907,
      "efforts": 1908,
      "ottomans": 1909,
      "bedouin": 1910,
      "guarding": 1911,
      "rocket": 1912,
      "attracting": 1913,
      "1461": 1914,
      "breath": 1915,
      "cells": 1916,
      "collectibles": 1917,
      "steller": 1918,
      "prime": 1919,
      "window": 1920,
      "dispute": 1921,
      "futile": 1922,
      "dollars": 1923,
      "bolivarian": 1924,
      "funds": 1925,
      "january": 1926,
      "peaks": 1927,
      "scientists": 1928,
      "troops": 1929,
      "differ": 1930,
      "advocate": 1931,
      "administrative": 1932,
      "radiation": 1933,
      "chapter": 1934,
      "conduct": 1935,
      "contribute": 1936,
      "commemorate": 1937,
      "fascinating": 1938,
      "hippod": 1939,
      "japan": 1940,
      "revealing": 1941,
      "suspended": 1942,
      "desert": 1943,
      "ongoing": 1944,
      "climbing": 1945,
      "spectacular": 1946,
      "televisions": 1947,
      "challenges": 1948,
      "taught": 1949,
      "inspired": 1950,
      "ingenuity": 1951,
      "forgotten": 1952,
      "against": 1953,
      "16": 1954,
      "7th": 1955,
      "cro": 1956,
      "cric": 1957,
      "dive": 1958,
      "eared": 1959,
      "gar": 1960,
      "ju": 1961,
      "kil": 1962,
      "nu": 1963,
      "run": 1964,
      "sof": 1965,
      "tical": 1966,
      "theory": 1967,
      "thearted": 1968,
      "itational": 1969,
      "aster": 1970,
      "ices": 1971,
      "oldest": 1972,
      "urance": 1973,
      "seas": 1974,
      "cian": 1975,
      "amph": 1976,
      "iling": 1977,
      "unes": 1978,
      "verse": 1979,
      "dec": 1980,
      "mobile": 1981,
      "poise": 1982,
      "copa": 1983,
      "proport": 1984,
      "proble": 1985,
      "phones": 1986,
      "compu": 1987,
      "comput": 1988,
      "endurance": 1989,
      "countries": 1990,
      "195": 1991,
      "popul": 1992,
      "tens": 1993,
      "including": 1994,
      "microclimate": 1995,
      "ological": 1996,
      "distinct": 1997,
      "electric": 1998,
      "celebrate": 1999,
      "caviar": 2000,
      "petrel": 2001,
      "functioning": 2002,
      "porpoise": 2003,
      "minister": 2004,
      "ministers": 2005,
      "writers": 2006,
      "designed": 2007,
      "gravitational": 2008,
      "tasks": 2009,
      "scotland": 2010,
      "hunted": 2011,
      "architecture": 2012,
      "france": 2013,
      "digital": 2014,
      "heavily": 2015,
      "bandy": 2016,
      "lighthearted": 2017,
      "seabird": 2018,
      "hippodrome": 2019,
      "ax": 2020,
      "bri": 2021,
      "batt": 2022,
      "clo": 2023,
      "dors": 2024,
      "far": 2025,
      "fil": 2026,
      "fish": 2027,
      "ges": 2028,
      "giv": 2029,
      "ho": 2030,
      "lin": 2031,
      "non": 2032,
      "sand": 2033,
      "sain": 2034,
      "ually": 2035,
      "vil": 2036,
      "thre": 2037,
      "them": 2038,
      "inhab": 2039,
      "resp": 2040,
      "revol": 2041,
      "ically": 2042,
      "ings": 2043,
      "stand": 2044,
      "tom": 2045,
      "let": 2046,
      "amander": 2047,
      "vers": 2048,
      "ceta": 2049,
      "soc": 2050,
      "whale": 2051,
      "ivid": 2052,
      "lycian": 2053,
      "erupts": 2054,
      "196": 2055,
      "few": 2056,
      "southern": 2057,
      "histor": 2058,
      "huge": 2059,
      "ibian": 2060,
      "finless": 2061,
      "russia": 2062,
      "salamander": 2063,
      "town": 2064,
      "planet": 2065,
      "sett": 2066,
      "sevens": 2067,
      "frame": 2068,
      "abstract": 2069,
      "pressionism": 2070,
      "birthplace": 2071,
      "direct": 2072,
      "different": 2073,
      "cricket": 2074,
      "amphibian": 2075,
      "proportional": 2076,
      "problem": 2077,
      "dorsal": 2078,
      "saint": 2079,
      "cetacean": 2080,
      ".'": 2081,
      "ake": 2082,
      "cas": 2083,
      "cra": 2084,
      "cou": 2085,
      "fed": 2086,
      "jo": 2087,
      "men": 2088,
      "ni": 2089,
      "nast": 2090,
      "pan": 2091,
      "squ": 2092,
      "use": 2093,
      "vous": 2094,
      "ery": 2095,
      "aland": 2096,
      "itage": 2097,
      "ash": 2098,
      "force": 2099,
      "amp": 2100,
      "span": 2101,
      "domin": 2102,
      "may": 2103,
      "being": 2104,
      "ext": 2105,
      "ident": 2106,
      "ments": 2107,
      "graph": 2108,
      "dynast": 2109,
      "electron": 2110,
      "falls": 2111,
      "heritage": 2112,
      "organization": 2113,
      "arctic": 2114,
      "nervous": 2115,
      "official": 2116,
      "battle": 2117,
      "three": 2118,
      "cup": 2119,
      "dance": 2120,
      "ec": 2121,
      "eag": 2122,
      "egy": 2123,
      "ially": 2124,
      "ky": 2125,
      "kes": 2126,
      "ling": 2127,
      "met": 2128,
      "pen": 2129,
      "ria": 2130,
      "sw": 2131,
      "tion": 2132,
      "ved": 2133,
      "zil": 2134,
      "then": 2135,
      "theore": 2136,
      "anatol": 2137,
      "ined": 2138,
      "inte": 2139,
      "ord": 2140,
      "ories": 2141,
      "itu": 2142,
      "ico": 2143,
      "ential": 2144,
      "ract": 2145,
      "get": 2146,
      "cons": 2147,
      "deep": 2148,
      "more": 2149,
      "arts": 2150,
      "expl": 2151,
      "thermo": 2152,
      "shif": 2153,
      "ument": 2154,
      "ney": 2155,
      "actions": 2156,
      "international": 2157,
      "southe": 2158,
      "ished": 2159,
      "smallest": 2160,
      "clou": 2161,
      "tax": 2162,
      "longest": 2163,
      "ission": 2164,
      "springs": 2165,
      "trees": 2166,
      "policies": 2167,
      "conquered": 2168,
      "volcanic": 2169,
      "internet": 2170,
      "spirit": 2171,
      "mexico": 2172,
      "complex": 2173,
      "inhabited": 2174,
      "framework": 2175,
      "feder": 2176,
      "egypt": 2177,
      "anatolia": 2178,
      "cat": 2179,
      "eph": 2180,
      "fest": 2181,
      "han": 2182,
      "hier": 2183,
      "hill": 2184,
      "ied": 2185,
      "jav": 2186,
      "merged": 2187,
      "ring": 2188,
      "inv": 2189,
      "indu": 2190,
      "incre": 2191,
      "information": 2192,
      "aty": 2193,
      "still": 2194,
      "che": 2195,
      "chem": 2196,
      "chang": 2197,
      "geomet": 2198,
      "spain": 2199,
      "ival": 2200,
      "establ": 2201,
      "app": 2202,
      "quir": 2203,
      "behav": 2204,
      "began": 2205,
      "sports": 2206,
      "thermal": 2207,
      "near": 2208,
      "erupting": 2209,
      "pris": 2210,
      "evol": 2211,
      "parts": 2212,
      "polar": 2213,
      "class": 2214,
      "type": 2215,
      "relig": 2216,
      "colony": 2217,
      "principle": 2218,
      "side": 2219,
      "models": 2220,
      "includes": 2221,
      "ible": 2222,
      "highest": 2223,
      "solar": 2224,
      "electro": 2225,
      "observ": 2226,
      "tware": 2227,
      "techni": 2228,
      "cave": 2229,
      "physical": 2230,
      "brazil": 2231,
      "contains": 2232,
      "influen": 2233,
      "cryst": 2234,
      "single": 2235,
      "zealand": 2236,
      "applications": 2237,
      "kilome": 2238,
      "running": 2239,
      "software": 2240,
      "unesco": 2241,
      "computing": 2242,
      "distinctive": 2243,
      "revolution": 2244,
      "soccer": 2245,
      "1960s": 2246,
      "directly": 2247,
      "dynasty": 2248,
      "11": 2249,
      "50": 2250,
      "9th": 2251,
      "bow": 2252,
      "bia": 2253,
      "bacter": 2254,
      "do": 2255,
      "ei": 2256,
      "ged": 2257,
      "gla": 2258,
      "game": 2259,
      "ii": 2260,
      "mig": 2261,
      "pract": 2262,
      "sci": 2263,
      "sound": 2264,
      "swed": 2265,
      "tun": 2266,
      "ving": 2267,
      "along": 2268,
      "ately": 2269,
      "ars": 2270,
      "ropy": 2271,
      "stu": 2272,
      "total": 2273,
      "leg": 2274,
      "lection": 2275,
      "cir": 2276,
      "terra": 2277,
      "ades": 2278,
      "artistic": 2279,
      "kingdoms": 2280,
      "optim": 2281,
      "izes": 2282,
      "occup": 2283,
      "neur": 2284,
      "meas": 2285,
      "peru": 2286,
      "green": 2287,
      "turn": 2288,
      "symbolic": 2289,
      "symbolizing": 2290,
      "fields": 2291,
      "minutes": 2292,
      "sky": 2293,
      "underground": 2294,
      "treaty": 2295,
      "salt": 2296,
      "networks": 2297,
      "production": 2298,
      "stars": 2299,
      "temperatures": 2300,
      "houses": 2301,
      "stellar": 2302,
      "abstraction": 2303,
      "mercia": 2304,
      "representing": 2305,
      "15th": 2306,
      "promoting": 2307,
      "figur": 2308,
      "golden": 2309,
      "approxim": 2310,
      "algorithms": 2311,
      "1970s": 2312,
      "just": 2313,
      "given": 2314,
      "integr": 2315,
      "cloud": 2316,
      "chemical": 2317,
      "kilometers": 2318,
      "bacteria": 2319,
      "200": 2320,
      "air": 2321,
      "bul": 2322,
      "best": 2323,
      "bath": 2324,
      "div": 2325,
      "eco": 2326,
      "fect": 2327,
      "flo": 2328,
      "ha": 2329,
      "hal": 2330,
      "haw": 2331,
      "ka": 2332,
      "kore": 2333,
      "lam": 2334,
      "na": 2335,
      "pas": 2336,
      "ror": 2337,
      "rum": 2338,
      "san": 2339,
      "vic": 2340,
      "via": 2341,
      "viv": 2342,
      "wal": 2343,
      "thous": 2344,
      "anal": 2345,
      "ency": 2346,
      "stri": 2347,
      "forman": 2348,
      "term": 2349,
      "spher": 2350,
      "series": 2351,
      "dev": 2352,
      "ively": 2353,
      "appe": 2354,
      "extens": 2355,
      "expressionism": 2356,
      "compet": 2357,
      "ume": 2358,
      "ides": 2359,
      "forms": 2360,
      "people": 2361,
      "194": 2362,
      "198": 2363,
      "199": 2364,
      "scale": 2365,
      "knowled": 2366,
      "feature": 2367,
      "berg": 2368,
      "performan": 2369,
      "individ": 2370,
      "novel": 2371,
      "waters": 2372,
      "engage": 2373,
      "fied": 2374,
      "incor": 2375,
      "relat": 2376,
      "related": 2377,
      "colonial": 2378,
      "tail": 2379,
      "visual": 2380,
      "ward": 2381,
      "188": 2382,
      "solid": 2383,
      "distance": 2384,
      "particle": 2385,
      "communic": 2386,
      "ularly": 2387,
      "pressure": 2388,
      "galax": 2389,
      "presence": 2390,
      "background": 2391,
      "rainforest": 2392,
      "organism": 2393,
      "wonders": 2394,
      "frag": 2395,
      "objects": 2396,
      "focused": 2397,
      "passes": 2398,
      "arctica": 2399,
      "games": 2400,
      "member": 2401,
      "current": 2402,
      "film": 2403,
      "respon": 2404,
      "square": 2405,
      "shift": 2406,
      "southeast": 2407,
      "evolution": 2408,
      "religious": 2409,
      "migr": 2410,
      "science": 2411,
      "measure": 2412,
      "ecosystem": 2413,
      "thousand": 2414,
      "individual": 2415,
      "aking": 2416,
      "bot": 2417,
      "biz": 2418,
      "bay": 2419,
      "cast": 2420,
      "cru": 2421,
      "cour": 2422,
      "dar": 2423,
      "dating": 2424,
      "demon": 2425,
      "four": 2426,
      "gon": 2427,
      "gland": 2428,
      "ham": 2429,
      "iber": 2430,
      "ker": 2431,
      "las": 2432,
      "mart": 2433,
      "mir": 2434,
      "mess": 2435,
      "ost": 2436,
      "ored": 2437,
      "pse": 2438,
      "rical": 2439,
      "ses": 2440,
      "som": 2441,
      "sus": 2442,
      "tri": 2443,
      "vin": 2444,
      "wall": 2445,
      "zer": 2446,
      "thetic": 2447,
      "once": 2448,
      "ena": 2449,
      "encou": 2450,
      "ision": 2451,
      "isle": 2452,
      "armen": 2453,
      "ases": 2454,
      "ici": 2455,
      "entropy": 2456,
      "role": 2457,
      "rout": 2458,
      "raw": 2459,
      "ime": 2460,
      "impro": 2461,
      "imag": 2462,
      "cies": 2463,
      "civil": 2464,
      "emerged": 2465,
      "ama": 2466,
      "lay": 2467,
      "within": 2468,
      "server": 2469,
      "ado": 2470,
      "code": 2471,
      "coord": 2472,
      "geysers": 2473,
      "apol": 2474,
      "opt": 2475,
      "maint": 2476,
      "abo": 2477,
      "phase": 2478,
      "lied": 2479,
      "libr": 2480,
      "composed": 2481,
      "ago": 2482,
      "neural": 2483,
      "duced": 2484,
      "ultan": 2485,
      "suc": 2486,
      "such": 2487,
      "tea": 2488,
      "regul": 2489,
      "gradi": 2490,
      "marble": 2491,
      "typ": 2492,
      "medium": 2493,
      "surviv": 2494,
      "poses": 2495,
      "bird": 2496,
      "continuously": 2497,
      "ceded": 2498,
      "greece": 2499,
      "resist": 2500,
      "follow": 2501,
      "ramid": 2502,
      "caves": 2503,
      "certain": 2504,
      "speed": 2505,
      "training": 2506,
      "wessex": 2507,
      "waves": 2508,
      "submerged": 2509,
      "beauty": 2510,
      "occurs": 2511,
      "pyramid": 2512,
      "gravity": 2513,
      "disputed": 2514,
      "transfer": 2515,
      "ruled": 2516,
      "self": 2517,
      "promote": 2518,
      "volcano": 2519,
      "allowing": 2520,
      "methods": 2521,
      "cali": 2522,
      "combines": 2523,
      "japanese": 2524,
      "computer": 2525,
      "population": 2526,
      "settle": 2527,
      "eagle": 2528,
      "festival": 2529,
      "invas": 2530,
      "applied": 2531,
      "behavior": 2532,
      "electromagnetic": 2533,
      "figurative": 2534,
      "passports": 2535,
      "knowledge": 2536,
      "incorpor": 2537,
      "demonstr": 2538,
      "encoura": 2539,
      "maintain": 2540,
      "8th": 2541,
      "aim": 2542,
      "brain": 2543,
      "cam": 2544,
      "cut": 2545,
      "dd": 2546,
      "eous": 2547,
      "fran": 2548,
      "gain": 2549,
      "hom": 2550,
      "ik": 2551,
      "ken": 2552,
      "lant": 2553,
      "mom": 2554,
      "mad": 2555,
      "oid": 2556,
      "pic": 2557,
      "rast": 2558,
      "sla": 2559,
      "sum": 2560,
      "song": 2561,
      "ties": 2562,
      "uum": 2563,
      "vir": 2564,
      "vac": 2565,
      "wn": 2566,
      "wid": 2567,
      "ya": 2568,
      "yond": 2569,
      "zam": 2570,
      "this": 2571,
      "anch": 2572,
      "anthem": 2573,
      "alth": 2574,
      "atlant": 2575,
      "rebuilt": 2576,
      "return": 2577,
      "enous": 2578,
      "islam": 2579,
      "oration": 2580,
      "orial": 2581,
      "arily": 2582,
      "roduced": 2583,
      "eleph": 2584,
      "olic": 2585,
      "imm": 2586,
      "imper": 2587,
      "emission": 2588,
      "amaz": 2589,
      "label": 2590,
      "lakes": 2591,
      "conserv": 2592,
      "iger": 2593,
      "igenous": 2594,
      "depl": 2595,
      "defin": 2596,
      "antarctica": 2597,
      "cos": 2598,
      "proposed": 2599,
      "ures": 2600,
      "avant": 2601,
      "beyond": 2602,
      "mining": 2603,
      "colla": 2604,
      "shire": 2605,
      "ends": 2606,
      "neut": 2607,
      "portu": 2608,
      "lumin": 2609,
      "formations": 2610,
      "basket": 2611,
      "fox": 2612,
      "depic": 2613,
      "head": 2614,
      "indigenous": 2615,
      "turk": 2616,
      "weight": 2617,
      "mars": 2618,
      "effici": 2619,
      "whose": 2620,
      "fication": 2621,
      "carved": 2622,
      "sailing": 2623,
      "million": 2624,
      "charge": 2625,
      "boo": 2626,
      "stein": 2627,
      "coastal": 2628,
      "electrical": 2629,
      "flat": 2630,
      "datab": 2631,
      "introduced": 2632,
      "vibr": 2633,
      "lasted": 2634,
      "ieved": 2635,
      "result": 2636,
      "reflects": 2637,
      "cript": 2638,
      "territories": 2639,
      "centralized": 2640,
      "dynamic": 2641,
      "ceremon": 2642,
      "break": 2643,
      "ratic": 2644,
      "leading": 2645,
      "subject": 2646,
      "played": 2647,
      "dragon": 2648,
      "ideas": 2649,
      "elements": 2650,
      "processes": 2651,
      "collective": 2652,
      "earthquake": 2653,
      "primarily": 2654,
      "scott": 2655,
      "annual": 2656,
      "13th": 2657,
      "oxy": 2658,
      "allows": 2659,
      "approach": 2660,
      "algorithm": 2661,
      "mechanical": 2662,
      "currency": 2663,
      "number": 2664,
      "reefs": 2665,
      "british": 2666,
      "distributed": 2667,
      "garde": 2668,
      "nucle": 2669,
      "1950s": 2670,
      "tomb": 2671,
      "craf": 2672,
      "identity": 2673,
      "electrons": 2674,
      "established": 2675,
      "quirky": 2676,
      "occupation": 2677,
      "approximately": 2678,
      "appears": 2679,
      "extensive": 2680,
      "performance": 2681,
      "organisms": 2682,
      "fragile": 2683,
      "response": 2684,
      "mirror": 2685,
      "armenian": 2686,
      "civilization": 2687,
      "library": 2688,
      "success": 2689,
      "invasions": 2690,
      "moment": 2691,
      "vacuum": 2692,
      "elephant": 2693,
      "deploy": 2694,
      "'.": 2695,
      "ah": 2696,
      "aes": 2697,
      "athen": 2698,
      "bc": 2699,
      "cul": 2700,
      "clu": 2701,
      "dro": 2702,
      "dle": 2703,
      "dem": 2704,
      "dney": 2705,
      "fire": 2706,
      "fjor": 2707,
      "garian": 2708,
      "here": 2709,
      "ira": 2710,
      "jected": 2711,
      "lan": 2712,
      "len": 2713,
      "mas": 2714,
      "mong": 2715,
      "ned": 2716,
      "none": 2717,
      "ose": 2718,
      "pi": 2719,
      "pom": 2720,
      "rich": 2721,
      "tr": 2722,
      "table": 2723,
      "uan": 2724,
      "wat": 2725,
      "wro": 2726,
      "wrest": 2727,
      "ying": 2728,
      "ans": 2729,
      "inian": 2730,
      "inet": 2731,
      "ints": 2732,
      "inverse": 2733,
      "onal": 2734,
      "era": 2735,
      "erous": 2736,
      "atmo": 2737,
      "offer": 2738,
      "itive": 2739,
      "itted": 2740,
      "itution": 2741,
      "esus": 2742,
      "astern": 2743,
      "icel": 2744,
      "anda": 2745,
      "robot": 2746,
      "top": 2747,
      "elab": 2748,
      "images": 2749,
      "chi": 2750,
      "geor": 2751,
      "sequ": 2752,
      "fort": 2753,
      "fornia": 2754,
      "iland": 2755,
      "travel": 2756,
      "une": 2757,
      "uninhabited": 2758,
      "pure": 2759,
      "versar": 2760,
      "confeder": 2761,
      "bling": 2762,
      "adap": 2763,
      "adversar": 2764,
      "moon": 2765,
      "cost": 2766,
      "ques": 2767,
      "making": 2768,
      "promin": 2769,
      "proper": 2770,
      "pho": 2771,
      "lying": 2772,
      "rid": 2773,
      "colum": 2774,
      "collection": 2775,
      "syn": 2776,
      "syria": 2777,
      "sydney": 2778,
      "shore": 2779,
      "autom": 2780,
      "endang": 2781,
      "cany": 2782,
      "former": 2783,
      "contrast": 2784,
      "scen": 2785,
      "ipel": 2786,
      "branch": 2787,
      "turks": 2788,
      "ength": 2789,
      "norse": 2790,
      "volume": 2791,
      "princess": 2792,
      "works": 2793,
      "common": 2794,
      "vision": 2795,
      "vised": 2796,
      "continent": 2797,
      "postmodern": 2798,
      "location": 2799,
      "wards": 2800,
      "187": 2801,
      "constitu": 2802,
      "archy": 2803,
      "archical": 2804,
      "archipel": 2805,
      "colorful": 2806,
      "solution": 2807,
      "lives": 2808,
      "lived": 2809,
      "parad": 2810,
      "celebration": 2811,
      "flour": 2812,
      "attraction": 2813,
      "gases": 2814,
      "viet": 2815,
      "baseball": 2816,
      "counter": 2817,
      "goal": 2818,
      "originating": 2819,
      "developed": 2820,
      "believed": 2821,
      "realism": 2822,
      "produce": 2823,
      "auton": 2824,
      "moroc": 2825,
      "painters": 2826,
      "transm": 2827,
      "special": 2828,
      "specific": 2829,
      "species": 2830,
      "trained": 2831,
      "issued": 2832,
      "existence": 2833,
      "biological": 2834,
      "written": 2835,
      "signals": 2836,
      "focus": 2837,
      "surrounding": 2838,
      "philosoph": 2839,
      "environmental": 2840,
      "equil": 2841,
      "levels": 2842,
      "passing": 2843,
      "architectural": 2844,
      "buried": 2845,
      "hypo": 2846,
      "atoll": 2847,
      "critic": 2848,
      "gold": 2849,
      "eventually": 2850,
      "britain": 2851,
      "distribution": 2852,
      "standard": 2853,
      "spanish": 2854,
      "dominant": 2855,
      "theorem": 2856,
      "consists": 2857,
      "exploration": 2858,
      "thermodynamics": 2859,
      "hierarchical": 2860,
      "increase": 2861,
      "changes": 2862,
      "geometric": 2863,
      "technique": 2864,
      "influences": 2865,
      "11th": 2866,
      "glaci": 2867,
      "swedish": 2868,
      "tailed": 2869,
      "communication": 2870,
      "thousands": 2871,
      "court": 2872,
      "martial": 2873,
      "routes": 2874,
      "improve": 2875,
      "above": 2876,
      "california": 2877,
      "atlantic": 2878,
      "islamic": 2879,
      "amazon": 2880,
      "conservation": 2881,
      "basketball": 2882,
      "scottish": 2883,
      "oxygen": 2884,
      "democ": 2885,
      "wrote": 2886,
      "offering": 2887,
      "iceland": 2888,
      "prominent": 2889,
      "endangered": 2890,
      "constituent": 2891,
      "66": 2892,
      "aff": 2893,
      "apost": 2894,
      "bce": 2895,
      "bab": 2896,
      "bers": 2897,
      "bound": 2898,
      "cular": 2899,
      "cross": 2900,
      "cause": 2901,
      "doc": 2902,
      "dwar": 2903,
      "fel": 2904,
      "fough": 2905,
      "gia": 2906,
      "gest": 2907,
      "hand": 2908,
      "hell": 2909,
      "hang": 2910,
      "iest": 2911,
      "juk": 2912,
      "kn": 2913,
      "lon": 2914,
      "ler": 2915,
      "lith": 2916,
      "lers": 2917,
      "mes": 2918,
      "map": 2919,
      "nel": 2920,
      "night": 2921,
      "oon": 2922,
      "rine": 2923,
      "range": 2924,
      "tan": 2925,
      "tch": 2926,
      "ues": 2927,
      "ven": 2928,
      "yn": 2929,
      "za": 2930,
      "thal": 2931,
      "thro": 2932,
      "thetical": 2933,
      "aning": 2934,
      "ances": 2935,
      "instr": 2936,
      "inary": 2937,
      "onions": 2938,
      "alex": 2939,
      "alger": 2940,
      "rele": 2941,
      "encom": 2942,
      "isa": 2943,
      "order": 2944,
      "orange": 2945,
      "iti": 2946,
      "ites": 2947,
      "itation": 2948,
      "arg": 2949,
      "arag": 2950,
      "ascript": 2951,
      "ently": 2952,
      "ster": 2953,
      "stor": 2954,
      "store": 2955,
      "tocol": 2956,
      "ouse": 2957,
      "elf": 2958,
      "old": 2959,
      "ole": 2960,
      "leon": 2961,
      "cho": 2962,
      "cham": 2963,
      "chil": 2964,
      "champ": 2965,
      "seen": 2966,
      "search": 2967,
      "emer": 2968,
      "sphere": 2969,
      "sos": 2970,
      "congo": 2971,
      "usion": 2972,
      "blending": 2973,
      "manage": 2974,
      "ute": 2975,
      "deter": 2976,
      "decor": 2977,
      "decentralized": 2978,
      "while": 2979,
      "eting": 2980,
      "uli": 2981,
      "poss": 2982,
      "point": 2983,
      "poets": 2984,
      "points": 2985,
      "estone": 2986,
      "ateg": 2987,
      "mag": 2988,
      "maxim": 2989,
      "aren": 2990,
      "protocol": 2991,
      "beam": 2992,
      "beach": 2993,
      "inea": 2994,
      "expla": 2995,
      "rium": 2996,
      "ript": 2997,
      "ires": 2998,
      "astro": 2999,
      "therlands": 3000,
      "animals": 3001,
      "ighbor": 3002,
      "angular": 3003,
      "netherlands": 3004,
      "neighbor": 3005,
      "acy": 3006,
      "cannot": 3007,
      "forming": 3008,
      "odes": 3009,
      "mali": 3010,
      "script": 3011,
      "importance": 3012,
      "bria": 3013,
      "moving": 3014,
      "budd": 3015,
      "performed": 3016,
      "gress": 3017,
      "indones": 3018,
      "wealth": 3019,
      "waterfalls": 3020,
      "norway": 3021,
      "rule": 3022,
      "cape": 3023,
      "marit": 3024,
      "marine": 3025,
      "relative": 3026,
      "ismatic": 3027,
      "austrian": 3028,
      "carth": 3029,
      "jordan": 3030,
      "palace": 3031,
      "warm": 3032,
      "189": 3033,
      "ibrium": 3034,
      "achiev": 3035,
      "temples": 3036,
      "charged": 3037,
      "timor": 3038,
      "particularly": 3039,
      "celebrations": 3040,
      "observed": 3041,
      "minerals": 3042,
      "pair": 3043,
      "mony": 3044,
      "guinea": 3045,
      "stretch": 3046,
      "attracted": 3047,
      "originated": 3048,
      "tress": 3049,
      "marked": 3050,
      "produces": 3051,
      "motion": 3052,
      "statue": 3053,
      "rainbow": 3054,
      "morning": 3055,
      "matter": 3056,
      "molec": 3057,
      "planning": 3058,
      "deposited": 3059,
      "bias": 3060,
      "harmony": 3061,
      "rival": 3062,
      "focusing": 3063,
      "algae": 3064,
      "conquest": 3065,
      "conquests": 3066,
      "equal": 3067,
      "ruling": 3068,
      "structured": 3069,
      "future": 3070,
      "authorities": 3071,
      "limit": 3072,
      "limestone": 3073,
      "seljuk": 3074,
      "bolivia": 3075,
      "hydro": 3076,
      "potential": 3077,
      "internal": 3078,
      "memory": 3079,
      "application": 3080,
      "mechanism": 3081,
      "supervised": 3082,
      "conductor": 3083,
      "16th": 3084,
      "computers": 3085,
      "brid": 3086,
      "brief": 3087,
      "historical": 3088,
      "javascript": 3089,
      "industri": 3090,
      "prising": 3091,
      "crystals": 3092,
      "practice": 3093,
      "integration": 3094,
      "korean": 3095,
      "crucial": 3096,
      "zero": 3097,
      "gradient": 3098,
      "types": 3099,
      "settlements": 3100,
      "encourages": 3101,
      "imperial": 3102,
      "books": 3103,
      "ceremony": 3104,
      "tombs": 3105,
      "successor": 3106,
      "momentum": 3107,
      "aesthetic": 3108,
      "mongol": 3109,
      "pompe": 3110,
      "wrestling": 3111,
      "elaborate": 3112,
      "sequence": 3113,
      "adversarial": 3114,
      "properties": 3115,
      "equilibrium": 3116,
      "hypothetical": 3117,
      "dwarf": 3118,
      "fought": 3119,
      "algeria": 3120,
      "chamber": 3121,
      "management": 3122,
      "industrial": 3123,
      "100": 3124,
      "25": 3125,
      "20s": 3126,
      "30": 3127,
      "40": 3128,
      "60": 3129,
      "6th": 3130,
      "74": 3131,
      "79": 3132,
      "93": 3133,
      "aver": 3134,
      "aiss": 3135,
      "ahar": 3136,
      "bit": 3137,
      "bak": 3138,
      "beng": 3139,
      "cof": 3140,
      "cure": 3141,
      "cab": 3142,
      "dre": 3143,
      "dou": 3144,
      "dim": 3145,
      "dens": 3146,
      "eh": 3147,
      "fing": 3148,
      "fro": 3149,
      "gth": 3150,
      "glow": 3151,
      "gard": 3152,
      "hm": 3153,
      "ht": 3154,
      "hro": 3155,
      "house": 3156,
      "ix": 3157,
      "kal": 3158,
      "kel": 3159,
      "kara": 3160,
      "kush": 3161,
      "lia": 3162,
      "live": 3163,
      "lines": 3164,
      "mn": 3165,
      "mam": 3166,
      "mous": 3167,
      "motto": 3168,
      "mission": 3169,
      "nou": 3170,
      "nim": 3171,
      "oil": 3172,
      "ocity": 3173,
      "pam": 3174,
      "pun": 3175,
      "pap": 3176,
      "pid": 3177,
      "ql": 3178,
      "sat": 3179,
      "sco": 3180,
      "select": 3181,
      "tall": 3182,
      "tide": 3183,
      "uga": 3184,
      "vast": 3185,
      "vary": 3186,
      "vious": 3187,
      "vada": 3188,
      "ys": 3189,
      "yt": 3190,
      "zen": 3191,
      "æte": 3192,
      "another": 3193,
      "anced": 3194,
      "inland": 3195,
      "insu": 3196,
      "ona": 3197,
      "onic": 3198,
      "onian": 3199,
      "onov": 3200,
      "eros": 3201,
      "ales": 3202,
      "ati": 3203,
      "atar": 3204,
      "atom": 3205,
      "renow": 3206,
      "rediscovered": 3207,
      "removed": 3208,
      "rejected": 3209,
      "isra": 3210,
      "isine": 3211,
      "oral": 3212,
      "orthod": 3213,
      "item": 3214,
      "itical": 3215,
      "esian": 3216,
      "esia": 3217,
      "arus": 3218,
      "ascar": 3219,
      "edge": 3220,
      "edges": 3221,
      "ict": 3222,
      "andes": 3223,
      "entire": 3224,
      "stal": 3225,
      "stam": 3226,
      "stay": 3227,
      "stren": 3228,
      "too": 3229,
      "toge": 3230,
      "tobac": 3231,
      "rapid": 3232,
      "els": 3233,
      "oly": 3234,
      "urban": 3235,
      "omy": 3236,
      "impression": 3237,
      "impressionism": 3238,
      "cher": 3239,
      "chim": 3240,
      "chain": 3241,
      "chile": 3242,
      "sey": 3243,
      "secur": 3244,
      "cid": 3245,
      "ford": 3246,
      "fortress": 3247,
      "cts": 3248,
      "ctions": 3249,
      "emen": 3250,
      "emot": 3251,
      "ames": 3252,
      "spac": 3253,
      "uncertain": 3254,
      "confl": 3255,
      "manian": 3256,
      "igm": 3257,
      "igu": 3258,
      "def": 3259,
      "ives": 3260,
      "ivities": 3261,
      "anti": 3262,
      "anton": 3263,
      "antarctic": 3264,
      "etic": 3265,
      "ules": 3266,
      "ulum": 3267,
      "ading": 3268,
      "mock": 3269,
      "pop": 3270,
      "pose": 3271,
      "estim": 3272,
      "cool": 3273,
      "covery": 3274,
      "cook": 3275,
      "coined": 3276,
      "centers": 3277,
      "ellig": 3278,
      "maced": 3279,
      "areas": 3280,
      "aving": 3281,
      "avoid": 3282,
      "absol": 3283,
      "laration": 3284,
      "phic": 3285,
      "exed": 3286,
      "exec": 3287,
      "iran": 3288,
      "minim": 3289,
      "minimal": 3290,
      "rier": 3291,
      "ireland": 3292,
      "working": 3293,
      "liament": 3294,
      "colate": 3295,
      "colored": 3296,
      "show": 3297,
      "shot": 3298,
      "shared": 3299,
      "comprising": 3300,
      "uments": 3301,
      "umbria": 3302,
      "oclet": 3303,
      "ocrine": 3304,
      "aging": 3305,
      "agascar": 3306,
      "angible": 3307,
      "nepal": 3308,
      "nevada": 3309,
      "previous": 3310,
      "acro": 3311,
      "accel": 3312,
      "actor": 3313,
      "actual": 3314,
      "formal": 3315,
      "meat": 3316,
      "interpre": 3317,
      "interaction": 3318,
      "eruption": 3319,
      "disk": 3320,
      "discovery": 3321,
      "strateg": 3322,
      "193": 3323,
      "1920s": 3324,
      "food": 3325,
      "claiming": 3326,
      "bust": 3327,
      "fee": 3328,
      "feat": 3329,
      "perfect": 3330,
      "events": 3331,
      "centered": 3332,
      "partially": 3333,
      "fresh": 3334,
      "ishing": 3335,
      "smaller": 3336,
      "serves": 3337,
      "serving": 3338,
      "services": 3339,
      "poland": 3340,
      "polish": 3341,
      "delic": 3342,
      "regular": 3343,
      "grass": 3344,
      "dile": 3345,
      "dioclet": 3346,
      "prince": 3347,
      "recognition": 3348,
      "capt": 3349,
      "universe": 3350,
      "unified": 3351,
      "velocity": 3352,
      "holy": 3353,
      "holds": 3354,
      "effects": 3355,
      "carbon": 3356,
      "surren": 3357,
      "powerhouses": 3358,
      "puts": 3359,
      "languages": 3360,
      "position": 3361,
      "much": 3362,
      "renaiss": 3363,
      "sah": 3364,
      "sail": 3365,
      "constitution": 3366,
      "mostly": 3367,
      "athlet": 3368,
      "ensional": 3369,
      "corn": 3370,
      "paris": 3371,
      "parliament": 3372,
      "will": 3373,
      "ricate": 3374,
      "celebrated": 3375,
      "suppor": 3376,
      "musical": 3377,
      "rotation": 3378,
      "condition": 3379,
      "magna": 3380,
      "intellig": 3381,
      "intangible": 3382,
      "intricate": 3383,
      "northumbria": 3384,
      "bodies": 3385,
      "mona": 3386,
      "monument": 3387,
      "lasting": 3388,
      "goals": 3389,
      "guese": 3390,
      "trebiz": 3391,
      "territorial": 3392,
      "cuisine": 3393,
      "help": 3394,
      "simultan": 3395,
      "generated": 3396,
      "generations": 3397,
      "beluga": 3398,
      "belarus": 3399,
      "produced": 3400,
      "producing": 3401,
      "philippines": 3402,
      "paint": 3403,
      "painted": 3404,
      "functional": 3405,
      "14th": 3406,
      "text": 3407,
      "values": 3408,
      "speaking": 3409,
      "involving": 3410,
      "vari": 3411,
      "rays": 3412,
      "existing": 3413,
      "pink": 3414,
      "york": 3415,
      "advanced": 3416,
      "tasmanian": 3417,
      "environments": 3418,
      "equation": 3419,
      "styles": 3420,
      "wildlife": 3421,
      "structures": 3422,
      "barrier": 3423,
      "myth": 3424,
      "myra": 3425,
      "annually": 3426,
      "annexed": 3427,
      "179": 3428,
      "digest": 3429,
      "pots": 3430,
      "bonni": 3431,
      "officially": 3432,
      "materials": 3433,
      "figure": 3434,
      "influence": 3435,
      "offshore": 3436,
      "mexican": 3437,
      "purity": 3438,
      "purpose": 3439,
      "gather": 3440,
      "middle": 3441,
      "emphasized": 3442,
      "emphasizing": 3443,
      "conceptual": 3444,
      "website": 3445,
      "conductivity": 3446,
      "decades": 3447,
      "declaration": 3448,
      "host": 3449,
      "hood": 3450,
      "version": 3451,
      "historic": 3452,
      "settlers": 3453,
      "peninsu": 3454,
      "theoretical": 3455,
      "thermophil": 3456,
      "java": 3457,
      "changing": 3458,
      "geometry": 3459,
      "prison": 3460,
      "polarization": 3461,
      "observations": 3462,
      "techniques": 3463,
      "crystal": 3464,
      "tunnel": 3465,
      "stud": 3466,
      "legend": 3467,
      "terraces": 3468,
      "optimization": 3469,
      "optimize": 3470,
      "neuron": 3471,
      "half": 3472,
      "hawking": 3473,
      "analog": 3474,
      "devices": 3475,
      "1940s": 3476,
      "relativity": 3477,
      "galaxy": 3478,
      "galaxies": 3479,
      "castle": 3480,
      "iberian": 3481,
      "message": 3482,
      "somal": 3483,
      "sussex": 3484,
      "enables": 3485,
      "coordination": 3486,
      "optimal": 3487,
      "regulations": 3488,
      "madagascar": 3489,
      "songs": 3490,
      "virt": 3491,
      "width": 3492,
      "labeled": 3493,
      "neutron": 3494,
      "portuguese": 3495,
      "vibrant": 3496,
      "resulting": 3497,
      "fjord": 3498,
      "georgia": 3499,
      "purely": 3500,
      "photo": 3501,
      "canyon": 3502,
      "paradigm": 3503,
      "vietnam": 3504,
      "morocco": 3505,
      "democratic": 3506,
      "lithuan": 3507,
      "maps": 3508,
      "instrument": 3509,
      "argent": 3510,
      "chocolate": 3511,
      "buddhist": 3512,
      "maritime": 3513,
      "carthage": 3514,
      "molecules": 3515,
      "aharonov": 3516,
      "bengal": 3517,
      "coffee": 3518,
      "dimensional": 3519,
      "tallest": 3520,
      "renowned": 3521,
      "israel": 3522,
      "orthodox": 3523,
      "stamps": 3524,
      "strength": 3525,
      "together": 3526,
      "tobacco": 3527,
      "security": 3528,
      "uncertainty": 3529,
      "absolute": 3530,
      "acceler": 3531,
      "diocletian": 3532,
      "renaissance": 3533,
      "supporters": 3534,
      "trebizond": 3535,
      "simultaneous": 3536,
      "bonnie": 3537,
      "peninsula": 3538,
      "110": 3539,
      "2n": 3540,
      "400": 3541,
      "53": 3542,
      "5th": 3543,
      "65": 3544,
      "82": 3545,
      "85": 3546,
      "aur": 3547,
      "bat": 3548,
      "bag": 3549,
      "bang": 3550,
      "bbon": 3551,
      "baren": 3552,
      "cr": 3553,
      "cass": 3554,
      "crus": 3555,
      "casc": 3556,
      "din": 3557,
      "dri": 3558,
      "dram": 3559,
      "divid": 3560,
      "ein": 3561,
      "ever": 3562,
      "fal": 3563,
      "fli": 3564,
      "five": 3565,
      "fight": 3566,
      "faster": 3567,
      "flying": 3568,
      "gi": 3569,
      "glim": 3570,
      "glands": 3571,
      "grid": 3572,
      "hen": 3573,
      "hall": 3574,
      "hag": 3575,
      "hond": 3576,
      "iors": 3577,
      "jer": 3578,
      "jean": 3579,
      "jets": 3580,
      "jama": 3581,
      "ki": 3582,
      "ku": 3583,
      "ked": 3584,
      "ls": 3585,
      "lor": 3586,
      "lou": 3587,
      "mit": 3588,
      "mith": 3589,
      "mut": 3590,
      "mph": 3591,
      "master": 3592,
      "mix": 3593,
      "nine": 3594,
      "niger": 3595,
      "nodes": 3596,
      "ood": 3597,
      "pact": 3598,
      "page": 3599,
      "pte": 3600,
      "path": 3601,
      "pier": 3602,
      "rin": 3603,
      "rim": 3604,
      "ril": 3605,
      "rupt": 3606,
      "rica": 3607,
      "rill": 3608,
      "sic": 3609,
      "sav": 3610,
      "sri": 3611,
      "sac": 3612,
      "sight": 3613,
      "slo": 3614,
      "swe": 3615,
      "sens": 3616,
      "sides": 3617,
      "sultan": 3618,
      "sql": 3619,
      "tat": 3620,
      "tle": 3621,
      "tam": 3622,
      "tage": 3623,
      "tite": 3624,
      "tru": 3625,
      "tely": 3626,
      "tile": 3627,
      "ud": 3628,
      "uz": 3629,
      "vant": 3630,
      "vex": 3631,
      "voc": 3632,
      "wing": 3633,
      "wide": 3634,
      "wake": 3635,
      "youn": 3636,
      "zim": 3637,
      "ths": 3638,
      "theastern": 3639,
      "ania": 3640,
      "ini": 3641,
      "inver": 3642,
      "invent": 3643,
      "infr": 3644,
      "invers": 3645,
      "ald": 3646,
      "alban": 3647,
      "ato": 3648,
      "ator": 3649,
      "reb": 3650,
      "recent": 3651,
      "requ": 3652,
      "reli": 3653,
      "redu": 3654,
      "requir": 3655,
      "rewards": 3656,
      "remn": 3657,
      "enor": 3658,
      "enabl": 3659,
      "isol": 3660,
      "isia": 3661,
      "isles": 3662,
      "itza": 3663,
      "escape": 3664,
      "aries": 3665,
      "assi": 3666,
      "eds": 3667,
      "eding": 3668,
      "icy": 3669,
      "icas": 3670,
      "ingian": 3671,
      "robust": 3672,
      "stones": 3673,
      "toon": 3674,
      "tool": 3675,
      "told": 3676,
      "toleon": 3677,
      "raine": 3678,
      "rather": 3679,
      "oul": 3680,
      "elic": 3681,
      "elet": 3682,
      "elength": 3683,
      "ola": 3684,
      "uras": 3685,
      "urged": 3686,
      "oman": 3687,
      "omous": 3688,
      "least": 3689,
      "leag": 3690,
      "imir": 3691,
      "imitation": 3692,
      "ches": 3693,
      "chuk": 3694,
      "geo": 3695,
      "cture": 3696,
      "emic": 3697,
      "embra": 3698,
      "ila": 3699,
      "ilica": 3700,
      "spent": 3701,
      "una": 3702,
      "unknown": 3703,
      "lae": 3704,
      "lapte": 3705,
      "bya": 3706,
      "soph": 3707,
      "conform": 3708,
      "construct": 3709,
      "consolid": 3710,
      "bland": 3711,
      "ounced": 3712,
      "ians": 3713,
      "iad": 3714,
      "iable": 3715,
      "serbian": 3716,
      "decl": 3717,
      "detailed": 3718,
      "ants": 3719,
      "adel": 3720,
      "adow": 3721,
      "adian": 3722,
      "itself": 3723,
      "artific": 3724,
      "core": 3725,
      "ders": 3726,
      "geyserite": 3727,
      "apes": 3728,
      "aphro": 3729,
      "april": 3730,
      "qual": 3731,
      "query": 3732,
      "mare": 3733,
      "magh": 3734,
      "provi": 3735,
      "progress": 3736,
      "ured": 3737,
      "bear": 3738,
      "beau": 3739,
      "phin": 3740,
      "phot": 3741,
      "extra": 3742,
      "extern": 3743,
      "exists": 3744,
      "experi": 3745,
      "expression": 3746,
      "lymph": 3747,
      "minor": 3748,
      "mines": 3749,
      "ridates": 3750,
      "ribbon": 3751,
      "worn": 3752,
      "libya": 3753,
      "astron": 3754,
      "astru": 3755,
      "cold": 3756,
      "coloss": 3757,
      "shadow": 3758,
      "compon": 3759,
      "umes": 3760,
      "umbing": 3761,
      "ock": 3762,
      "enduring": 3763,
      "endocrine": 3764,
      "agu": 3765,
      "angel": 3766,
      "ghost": 3767,
      "neo": 3768,
      "neu": 3769,
      "preserve": 3770,
      "preceded": 3771,
      "acle": 3772,
      "accre": 3773,
      "dual": 3774,
      "cred": 3775,
      "creation": 3776,
      "mented": 3777,
      "canadian": 3778,
      "actic": 3779,
      "acting": 3780,
      "activities": 3781,
      "plumbing": 3782,
      "essential": 3783,
      "basilica": 3784,
      "content": 3785,
      "contact": 3786,
      "meaning": 3787,
      "meeting": 3788,
      "displa": 3789,
      "disks": 3790,
      "prus": 3791,
      "petra": 3792,
      "malay": 3793,
      "malta": 3794,
      "tebr": 3795,
      "outlasted": 3796,
      "namib": 3797,
      "buoy": 3798,
      "bertoleon": 3799,
      "permission": 3800,
      "larger": 3801,
      "height": 3802,
      "healing": 3803,
      "insul": 3804,
      "depending": 3805,
      "americas": 3806,
      "builds": 3807,
      "popularity": 3808,
      "engine": 3809,
      "northeastern": 3810,
      "polyn": 3811,
      "political": 3812,
      "voltage": 3813,
      "regions": 3814,
      "regularly": 3815,
      "graphy": 3816,
      "marin": 3817,
      "classi": 3818,
      "ption": 3819,
      "inca": 3820,
      "relational": 3821,
      "relations": 3822,
      "holes": 3823,
      "ogly": 3824,
      "colonization": 3825,
      "hottest": 3826,
      "fiction": 3827,
      "curric": 3828,
      "sible": 3829,
      "causing": 3830,
      "surve": 3831,
      "wars": 3832,
      "pools": 3833,
      "186": 3834,
      "mud": 3835,
      "higher": 3836,
      "highlight": 3837,
      "renounced": 3838,
      "constrain": 3839,
      "mill": 3840,
      "charles": 3841,
      "charismatic": 3842,
      "boat": 3843,
      "board": 3844,
      "boiling": 3845,
      "times": 3846,
      "grandio": 3847,
      "lightweight": 3848,
      "veau": 3849,
      "microwave": 3850,
      "ologists": 3851,
      "stew": 3852,
      "steep": 3853,
      "celebes": 3854,
      "final": 3855,
      "nett": 3856,
      "netfli": 3857,
      "distances": 3858,
      "rush": 3859,
      "observer": 3860,
      "examples": 3861,
      "fertile": 3862,
      "muslim": 3863,
      "landscapes": 3864,
      "cooperative": 3865,
      "citadel": 3866,
      "illologists": 3867,
      "pressed": 3868,
      "daily": 3869,
      "galactic": 3870,
      "mones": 3871,
      "monaster": 3872,
      "monarchy": 3873,
      "ski": 3874,
      "skelet": 3875,
      "viking": 3876,
      "view": 3877,
      "underwater": 3878,
      "functions": 3879,
      "originally": 3880,
      "cuit": 3881,
      "simple": 3882,
      "simplic": 3883,
      "generate": 3884,
      "generative": 3885,
      "personal": 3886,
      "sources": 3887,
      "10th": 3888,
      "hormones": 3889,
      "covering": 3890,
      "valley": 3891,
      "associated": 3892,
      "declare": 3893,
      "wavelength": 3894,
      "amental": 3895,
      "provides": 3896,
      "plane": 3897,
      "narro": 3898,
      "oceans": 3899,
      "silk": 3900,
      "silent": 3901,
      "leads": 3902,
      "connected": 3903,
      "harp": 3904,
      "ideal": 3905,
      "pyth": 3906,
      "enkov": 3907,
      "globalized": 3908,
      "writing": 3909,
      "cliffs": 3910,
      "plants": 3911,
      "planted": 3912,
      "controls": 3913,
      "focuses": 3914,
      "opaline": 3915,
      "libertas": 3916,
      "learned": 3917,
      "transition": 3918,
      "hittite": 3919,
      "pillars": 3920,
      "rules": 3921,
      "container": 3922,
      "containing": 3923,
      "barbiz": 3924,
      "barnett": 3925,
      "hunting": 3926,
      "hours": 3927,
      "passed": 3928,
      "dolphin": 3929,
      "ukraine": 3930,
      "provincial": 3931,
      "12th": 3932,
      "17th": 3933,
      "fundamental": 3934,
      "masses": 3935,
      "massive": 3936,
      "scientific": 3937,
      "artworks": 3938,
      "humorous": 3939,
      "clean": 3940,
      "spiral": 3941,
      "critically": 3942,
      "purposes": 3943,
      "gaelic": 3944,
      "numbers": 3945,
      "emphasizes": 3946,
      "completely": 3947,
      "croat": 3948,
      "crown": 3949,
      "soft": 3950,
      "season": 3951,
      "seasons": 3952,
      "tensions": 3953,
      "cloth": 3954,
      "closed": 3955,
      "planetary": 3956,
      "casimir": 3957,
      "crab": 3958,
      "joh": 3959,
      "spanning": 3960,
      "maya": 3961,
      "extends": 3962,
      "eagles": 3963,
      "meta": 3964,
      "penrose": 3965,
      "getting": 3966,
      "consist": 3967,
      "deepest": 3968,
      "neys": 3969,
      "taxila": 3970,
      "egyptian": 3971,
      "cats": 3972,
      "hills": 3973,
      "brazilian": 3974,
      "influenced": 3975,
      "sweden": 3976,
      "tunisia": 3977,
      "study": 3978,
      "legacy": 3979,
      "circul": 3980,
      "neurons": 3981,
      "saltwater": 3982,
      "justinian": 3983,
      "bulgarian": 3984,
      "baths": 3985,
      "division": 3986,
      "floating": 3987,
      "rumbling": 3988,
      "walks": 3989,
      "spheres": 3990,
      "spherical": 3991,
      "novelists": 3992,
      "relatively": 3993,
      "rainforests": 3994,
      "migration": 3995,
      "migrates": 3996,
      "ibero": 3997,
      "imagery": 3998,
      "apollo": 3999,
      "survived": 4000,
      "surviving": 4001,
      "followers": 4002,
      "pyramids": 4003,
      "aims": 4004,
      "camel": 4005,
      "gained": 4006,
      "homer": 4007,
      "summer": 4008,
      "zambia": 4009,
      "immers": 4010,
      "cosmic": 4011,
      "turkmen": 4012,
      "efficiency": 4013,
      "database": 4014,
      "databases": 4015,
      "nucleus": 4016,
      "crafts": 4017,
      "deployment": 4018,
      "clust": 4019,
      "iraq": 4020,
      "lanka": 4021,
      "atmosphere": 4022,
      "confederate": 4023,
      "costa": 4024,
      "columbian": 4025,
      "scenes": 4026,
      "continental": 4027,
      "postmodernism": 4028,
      "1870": 4029,
      "archipelago": 4030,
      "autonomous": 4031,
      "philosopher": 4032,
      "glacier": 4033,
      "affect": 4034,
      "apostolic": 4035,
      "babwe": 4036,
      "hellen": 4037,
      "alexander": 4038,
      "relevant": 4039,
      "aragon": 4040,
      "champions": 4041,
      "maximum": 4042,
      "neighborhood": 4043,
      "indonesia": 4044,
      "achieve": 4045,
      "pairs": 4046,
      "bridge": 4047,
      "pompey": 4048,
      "cabinet": 4049,
      "dress": 4050,
      "density": 4051,
      "glowwor": 4052,
      "gardens": 4053,
      "nouveau": 4054,
      "nimis": 4055,
      "selection": 4056,
      "varying": 4057,
      "erosion": 4058,
      "olymp": 4059,
      "impressionist": 4060,
      "cherenkov": 4061,
      "antonio": 4062,
      "cooler": 4063,
      "minimum": 4064,
      "minimalism": 4065,
      "acropolis": 4066,
      "strategies": 4067,
      "freshwater": 4068,
      "delicate": 4069,
      "captured": 4070,
      "surrender": 4071,
      "athletics": 4072,
      "gatherings": 4073,
      "thermophilic": 4074,
      "studies": 4075,
      "virtual": 4076,
      "simultaneously": 4077,
      "2nd": 4078,
      "barents": 4079,
      "dramatic": 4080,
      "divided": 4081,
      "einstein": 4082,
      "glimpse": 4083,
      "honduras": 4084,
      "mithridates": 4085,
      "sultanate": 4086,
      "vexillologists": 4087,
      "zimbabwe": 4088,
      "invertebr": 4089,
      "infrastru": 4090,
      "inversely": 4091,
      "requiring": 4092,
      "enormous": 4093,
      "isolated": 4094,
      "robustness": 4095,
      "league": 4096,
      "chukchi": 4097,
      "laptev": 4098,
      "conformity": 4099,
      "consolidate": 4100,
      "declined": 4101,
      "maghreb": 4102,
      "beaufort": 4103,
      "external": 4104,
      "experience": 4105,
      "accretion": 4106,
      "bertoleoni": 4107,
      "curriculum": 4108,
      "highlighting": 4109,
      "boardwalks": 4110,
      "grandiose": 4111,
      "netflix": 4112,
      "simplicity": 4113,
      "barbizon": 4114,
      "invertebrate": 4115,
      "infrastructure": 4116,
      "',": 4117,
      "21": 4118,
      "23": 4119,
      "27": 4120,
      "300": 4121,
      "43": 4122,
      "48": 4123,
      "78": 4124,
      "aci": 4125,
      "away": 4126,
      "aemen": 4127,
      "bus": 4128,
      "bits": 4129,
      "bau": 4130,
      "bill": 4131,
      "bability": 4132,
      "bhut": 4133,
      "cly": 4134,
      "cum": 4135,
      "cles": 4136,
      "cdon": 4137,
      "dj": 4138,
      "dp": 4139,
      "dia": 4140,
      "dut": 4141,
      "dite": 4142,
      "dral": 4143,
      "dov": 4144,
      "dunes": 4145,
      "dna": 4146,
      "eg": 4147,
      "ek": 4148,
      "eight": 4149,
      "ecu": 4150,
      "ft": 4151,
      "fy": 4152,
      "fon": 4153,
      "fas": 4154,
      "fem": 4155,
      "fri": 4156,
      "fill": 4157,
      "fying": 4158,
      "fusion": 4159,
      "factual": 4160,
      "gs": 4161,
      "gor": 4162,
      "gow": 4163,
      "gate": 4164,
      "gund": 4165,
      "glas": 4166,
      "hem": 4167,
      "hind": 4168,
      "hib": 4169,
      "hemis": 4170,
      "hamp": 4171,
      "hindu": 4172,
      "ij": 4173,
      "ias": 4174,
      "jar": 4175,
      "jun": 4176,
      "jut": 4177,
      "jesus": 4178,
      "james": 4179,
      "jagu": 4180,
      "kh": 4181,
      "km": 4182,
      "kor": 4183,
      "kar": 4184,
      "kot": 4185,
      "kir": 4186,
      "kaz": 4187,
      "kistan": 4188,
      "khan": 4189,
      "lom": 4190,
      "lun": 4191,
      "lates": 4192,
      "lord": 4193,
      "length": 4194,
      "ml": 4195,
      "mand": 4196,
      "mim": 4197,
      "mone": 4198,
      "mates": 4199,
      "mile": 4200,
      "ns": 4201,
      "nis": 4202,
      "nut": 4203,
      "nab": 4204,
      "nag": 4205,
      "native": 4206,
      "oe": 4207,
      "och": 4208,
      "pel": 4209,
      "pine": 4210,
      "pag": 4211,
      "peng": 4212,
      "pared": 4213,
      "pado": 4214,
      "rh": 4215,
      "right": 4216,
      "rics": 4217,
      "rative": 4218,
      "rhy": 4219,
      "rera": 4220,
      "sl": 4221,
      "sen": 4222,
      "sab": 4223,
      "snow": 4224,
      "saf": 4225,
      "sene": 4226,
      "size": 4227,
      "situ": 4228,
      "sites": 4229,
      "tu": 4230,
      "tory": 4231,
      "tay": 4232,
      "tak": 4233,
      "tong": 4234,
      "troy": 4235,
      "tiger": 4236,
      "ua": 4237,
      "uations": 4238,
      "uish": 4239,
      "vo": 4240,
      "van": 4241,
      "vet": 4242,
      "wi": 4243,
      "win": 4244,
      "wel": 4245,
      "wol": 4246,
      "wine": 4247,
      "wich": 4248,
      "xed": 4249,
      "yana": 4250,
      "zz": 4251,
      "zone": 4252,
      "zhang": 4253,
      "zania": 4254,
      "tha": 4255,
      "thus": 4256,
      "third": 4257,
      "these": 4258,
      "theod": 4259,
      "thesis": 4260,
      "thedral": 4261,
      "ani": 4262,
      "anth": 4263,
      "anmar": 4264,
      "ancy": 4265,
      "anistan": 4266,
      "init": 4267,
      "ining": 4268,
      "inst": 4269,
      "infin": 4270,
      "infect": 4271,
      "inputs": 4272,
      "onto": 4273,
      "onia": 4274,
      "ontan": 4275,
      "ala": 4276,
      "aliz": 4277,
      "altern": 4278,
      "ata": 4279,
      "atory": 4280,
      "attemp": 4281,
      "atorial": 4282,
      "offa": 4283,
      "regre": 4284,
      "rept": 4285,
      "remark": 4286,
      "reaction": 4287,
      "reward": 4288,
      "research": 4289,
      "reserves": 4290,
      "resources": 4291,
      "enco": 4292,
      "enite": 4293,
      "enable": 4294,
      "ensem": 4295,
      "encia": 4296,
      "encry": 4297,
      "enget": 4298,
      "enberg": 4299,
      "isot": 4300,
      "isid": 4301,
      "ori": 4302,
      "oring": 4303,
      "orot": 4304,
      "orary": 4305,
      "itting": 4306,
      "itzer": 4307,
      "ark": 4308,
      "aris": 4309,
      "ards": 4310,
      "arms": 4311,
      "army": 4312,
      "asis": 4313,
      "asing": 4314,
      "assy": 4315,
      "assoc": 4316,
      "edes": 4317,
      "edding": 4318,
      "icult": 4319,
      "icating": 4320,
      "iconic": 4321,
      "inguish": 4322,
      "entities": 4323,
      "sts": 4324,
      "stan": 4325,
      "stun": 4326,
      "stap": 4327,
      "stain": 4328,
      "stance": 4329,
      "today": 4330,
      "toward": 4331,
      "races": 4332,
      "racy": 4333,
      "elop": 4334,
      "olas": 4335,
      "olingian": 4336,
      "ombia": 4337,
      "lex": 4338,
      "leop": 4339,
      "leone": 4340,
      "leban": 4341,
      "improv": 4342,
      "impact": 4343,
      "imedes": 4344,
      "chad": 4345,
      "chich": 4346,
      "chick": 4347,
      "geta": 4348,
      "separ": 4349,
      "seceded": 4350,
      "secular": 4351,
      "ciph": 4352,
      "cipl": 4353,
      "forgetting": 4354,
      "waste": 4355,
      "ctuations": 4356,
      "emits": 4357,
      "emerg": 4358,
      "embro": 4359,
      "among": 4360,
      "iliad": 4361,
      "split": 4362,
      "sperous": 4363,
      "spontan": 4364,
      "unit": 4365,
      "unic": 4366,
      "unei": 4367,
      "pul": 4368,
      "pups": 4369,
      "laid": 4370,
      "lades": 4371,
      "versail": 4372,
      "bylon": 4373,
      "ceiling": 4374,
      "soil": 4375,
      "soco": 4376,
      "cone": 4377,
      "contra": 4378,
      "user": 4379,
      "usal": 4380,
      "bly": 4381,
      "managing": 4382,
      "iga": 4383,
      "ortion": 4384,
      "traditionally": 4385,
      "serenget": 4386,
      "dead": 4387,
      "decre": 4388,
      "death": 4389,
      "deals": 4390,
      "devil": 4391,
      "deira": 4392,
      "deciph": 4393,
      "istical": 4394,
      "istics": 4395,
      "isticated": 4396,
      "antelop": 4397,
      "etland": 4398,
      "eties": 4399,
      "landloc": 4400,
      "ador": 4401,
      "aday": 4402,
      "address": 4403,
      "mosc": 4404,
      "modi": 4405,
      "mosa": 4406,
      "mozam": 4407,
      "poem": 4408,
      "pock": 4409,
      "arte": 4410,
      "coat": 4411,
      "coated": 4412,
      "codile": 4413,
      "optical": 4414,
      "opposes": 4415,
      "quas": 4416,
      "quid": 4417,
      "maur": 4418,
      "makes": 4419,
      "mainland": 4420,
      "prox": 4421,
      "prote": 4422,
      "project": 4423,
      "probability": 4424,
      "prosperous": 4425,
      "avil": 4426,
      "avatar": 4427,
      "beeh": 4428,
      "izon": 4429,
      "phs": 4430,
      "phon": 4431,
      "exper": 4432,
      "except": 4433,
      "exhib": 4434,
      "emporary": 4435,
      "iry": 4436,
      "irish": 4437,
      "worth": 4438,
      "liver": 4439,
      "liquid": 4440,
      "astic": 4441,
      "colos": 4442,
      "colombia": 4443,
      "overseas": 4444,
      "she": 4445,
      "shall": 4446,
      "share": 4447,
      "aug": 4448,
      "agic": 4449,
      "ango": 4450,
      "angles": 4451,
      "anglia": 4452,
      "angola": 4453,
      "angkor": 4454,
      "ghanistan": 4455,
      "nebu": 4456,
      "necro": 4457,
      "prevent": 4458,
      "acad": 4459,
      "dually": 4460,
      "crete": 4461,
      "michel": 4462,
      "cancer": 4463,
      "pler": 4464,
      "plates": 4465,
      "odo": 4466,
      "basin": 4467,
      "basis": 4468,
      "contemporary": 4469,
      "interact": 4470,
      "interactive": 4471,
      "interactions": 4472,
      "interstellar": 4473,
      "worldwide": 4474,
      "disfar": 4475,
      "discharge": 4476,
      "discipl": 4477,
      "malaw": 4478,
      "string": 4479,
      "1919": 4480,
      "1912": 4481,
      "1917": 4482,
      "sue": 4483,
      "sugar": 4484,
      "sustain": 4485,
      "outcomes": 4486,
      "scales": 4487,
      "iper": 4488,
      "brunei": 4489,
      "move": 4490,
      "feast": 4491,
      "bernic": 4492,
      "afghanistan": 4493,
      "perform": 4494,
      "cks": 4495,
      "smart": 4496,
      "greater": 4497,
      "love": 4498,
      "desired": 4499,
      "heated": 4500,
      "hept": 4501,
      "indicating": 4502,
      "inside": 4503,
      "nov": 4504,
      "noble": 4505,
      "turing": 4506,
      "tennis": 4507,
      "redshift": 4508,
      "wegian": 4509,
      "weaving": 4510,
      "grot": 4511,
      "waterfall": 4512,
      "norman": 4513,
      "norfolk": 4514,
      "norwegian": 4515,
      "polo": 4516,
      "volumes": 4517,
      "deli": 4518,
      "notation": 4519,
      "gran": 4520,
      "gradually": 4521,
      "ruby": 4522,
      "printed": 4523,
      "recognize": 4524,
      "cappado": 4525,
      "marshall": 4526,
      "clusion": 4527,
      "fixed": 4528,
      "ritual": 4529,
      "typed": 4530,
      "reliable": 4531,
      "ogle": 4532,
      "ogene": 4533,
      "colonized": 4534,
      "lower": 4535,
      "lowest": 4536,
      "commer": 4537,
      "curs": 4538,
      "causes": 4539,
      "cathedral": 4540,
      "causal": 4541,
      "visible": 4542,
      "seals": 4543,
      "carry": 4544,
      "carpet": 4545,
      "carries": 4546,
      "carcass": 4547,
      "carrera": 4548,
      "carolingian": 4549,
      "surreal": 4550,
      "postage": 4551,
      "genetic": 4552,
      "christmas": 4553,
      "palmyra": 4554,
      "positive": 4555,
      "183": 4556,
      "185": 4557,
      "must": 4558,
      "achaemen": 4559,
      "reflection": 4560,
      "germany": 4561,
      "better": 4562,
      "highly": 4563,
      "ameter": 4564,
      "temporal": 4565,
      "modernism": 4566,
      "sauna": 4567,
      "millen": 4568,
      "archae": 4569,
      "archery": 4570,
      "archimedes": 4571,
      "charges": 4572,
      "box": 4573,
      "book": 4574,
      "bohm": 4575,
      "places": 4576,
      "humans": 4577,
      "solved": 4578,
      "solving": 4579,
      "vegeta": 4580,
      "dancing": 4581,
      "ologies": 4582,
      "step": 4583,
      "lagoon": 4584,
      "foreign": 4585,
      "finding": 4586,
      "netball": 4587,
      "distant": 4588,
      "distortion": 4589,
      "fluctuations": 4590,
      "paul": 4591,
      "royalty": 4592,
      "grows": 4593,
      "technical": 4594,
      "pressive": 4595,
      "northwestern": 4596,
      "skill": 4597,
      "vie": 4598,
      "viol": 4599,
      "understand": 4600,
      "attac": 4601,
      "whether": 4602,
      "baltic": 4603,
      "bai": 4604,
      "baob": 4605,
      "babylon": 4606,
      "goat": 4607,
      "good": 4608,
      "google": 4609,
      "guyana": 4610,
      "magnetization": 4611,
      "cycl": 4612,
      "cycle": 4613,
      "tree": 4614,
      "markup": 4615,
      "belt": 4616,
      "below": 4617,
      "belize": 4618,
      "product": 4619,
      "static": 4620,
      "statistical": 4621,
      "semi": 4622,
      "teammates": 4623,
      "1066": 4624,
      "fail": 4625,
      "fairy": 4626,
      "hormone": 4627,
      "horizon": 4628,
      "tower": 4629,
      "spacetime": 4630,
      "valencia": 4631,
      "predicts": 4632,
      "breaking": 4633,
      "sardis": 4634,
      "sardin": 4635,
      "toria": 4636,
      "varies": 4637,
      "describe": 4638,
      "describing": 4639,
      "cellular": 4640,
      "flows": 4641,
      "flower": 4642,
      "setting": 4643,
      "freetown": 4644,
      "deposits": 4645,
      "buildings": 4646,
      "resemble": 4647,
      "resembling": 4648,
      "saxons": 4649,
      "bique": 4650,
      "biome": 4651,
      "biology": 4652,
      "hard": 4653,
      "akhstan": 4654,
      "prediction": 4655,
      "epic": 4656,
      "fraud": 4657,
      "saudi": 4658,
      "processing": 4659,
      "latvia": 4660,
      "navy": 4661,
      "seeking": 4662,
      "designers": 4663,
      "sambo": 4664,
      "hearty": 4665,
      "frequency": 4666,
      "learns": 4667,
      "rulers": 4668,
      "representation": 4669,
      "representational": 4670,
      "representations": 4671,
      "expans": 4672,
      "forests": 4673,
      "ift": 4674,
      "prior": 4675,
      "reaching": 4676,
      "arabia": 4677,
      "shark": 4678,
      "frequently": 4679,
      "burgund": 4680,
      "myanmar": 4681,
      "nerve": 4682,
      "selenite": 4683,
      "target": 4684,
      "foundation": 4685,
      "brushwork": 4686,
      "faces": 4687,
      "139": 4688,
      "potato": 4689,
      "sierra": 4690,
      "administration": 4691,
      "critics": 4692,
      "figures": 4693,
      "generalization": 4694,
      "direction": 4695,
      "gamma": 4696,
      "singing": 4697,
      "mechanics": 4698,
      "brown": 4699,
      "numerous": 4700,
      "emphasis": 4701,
      "concepts": 4702,
      "crocodile": 4703,
      "garment": 4704,
      "nubian": 4705,
      "populations": 4706,
      "architectures": 4707,
      "faraday": 4708,
      "lindisfar": 4709,
      "sandstone": 4710,
      "themes": 4711,
      "respond": 4712,
      "historically": 4713,
      "towns": 4714,
      "casher": 4715,
      "could": 4716,
      "panama": 4717,
      "squid": 4718,
      "ashi": 4719,
      "ashcan": 4720,
      "spans": 4721,
      "extinct": 4722,
      "switzer": 4723,
      "explore": 4724,
      "southeastern": 4725,
      "taxes": 4726,
      "spiritual": 4727,
      "ephesus": 4728,
      "hanle": 4729,
      "hierogly": 4730,
      "increasing": 4731,
      "cheese": 4732,
      "behaviors": 4733,
      "nearly": 4734,
      "revolutionized": 4735,
      "bowhead": 4736,
      "door": 4737,
      "either": 4738,
      "glacial": 4739,
      "practices": 4740,
      "circuit": 4741,
      "greenland": 4742,
      "saltiest": 4743,
      "diving": 4744,
      "floor": 4745,
      "hawai": 4746,
      "korea": 4747,
      "wales": 4748,
      "walrus": 4749,
      "analy": 4750,
      "device": 4751,
      "compete": 4752,
      "competitions": 4753,
      "1980s": 4754,
      "1999": 4755,
      "1880s": 4756,
      "communicate": 4757,
      "measurements": 4758,
      "dark": 4759,
      "fourth": 4760,
      "kerr": 4761,
      "laser": 4762,
      "walls": 4763,
      "layer": 4764,
      "layers": 4765,
      "coordin": 4766,
      "apollon": 4767,
      "gradients": 4768,
      "following": 4769,
      "settlement": 4770,
      "incorporated": 4771,
      "incorporating": 4772,
      "demonstrates": 4773,
      "encourage": 4774,
      "maintained": 4775,
      "ikal": 4776,
      "kenya": 4777,
      "picts": 4778,
      "slavic": 4779,
      "widely": 4780,
      "returns": 4781,
      "immune": 4782,
      "collabor": 4783,
      "collapse": 4784,
      "portugal": 4785,
      "luminous": 4786,
      "depicted": 4787,
      "depicting": 4788,
      "turkish": 4789,
      "breaks": 4790,
      "nuclei": 4791,
      "craft": 4792,
      "athens": 4793,
      "pie": 4794,
      "robotics": 4795,
      "topped": 4796,
      "confederation": 4797,
      "adapt": 4798,
      "synap": 4799,
      "synthesis": 4800,
      "automating": 4801,
      "commonwealth": 4802,
      "archipelagic": 4803,
      "flourished": 4804,
      "counterfactual": 4805,
      "autonomic": 4806,
      "transmit": 4807,
      "transmitted": 4808,
      "philosophical": 4809,
      "glaciers": 4810,
      "documents": 4811,
      "gesture": 4812,
      "tanzania": 4813,
      "thalassoc": 4814,
      "encompasses": 4815,
      "storage": 4816,
      "child": 4817,
      "determines": 4818,
      "decorated": 4819,
      "protocols": 4820,
      "beams": 4821,
      "beaches": 4822,
      "stretching": 4823,
      "rivalries": 4824,
      "hydrothermal": 4825,
      "potentials": 4826,
      "double": 4827,
      "mammal": 4828,
      "papal": 4829,
      "atoms": 4830,
      "items": 4831,
      "stalact": 4832,
      "emotional": 4833,
      "spaces": 4834,
      "conflic": 4835,
      "estimates": 4836,
      "cooked": 4837,
      "macedonian": 4838,
      "avoiding": 4839,
      "execution": 4840,
      "previously": 4841,
      "featuring": 4842,
      "carbonate": 4843,
      "sahara": 4844,
      "conditioned": 4845,
      "intelligence": 4846,
      "monaco": 4847,
      "digestive": 4848,
      "analogous": 4849,
      "somaliland": 4850,
      "lithuania": 4851,
      "argentina": 4852,
      "acceleration": 4853,
      "banglades": 4854,
      "cascading": 4855,
      "jeans": 4856,
      "jamaica": 4857,
      "muted": 4858,
      "pierre": 4859,
      "sicily": 4860,
      "trust": 4861,
      "vocaliz": 4862,
      "young": 4863,
      "requires": 4864,
      "relies": 4865,
      "remnant": 4866,
      "enabling": 4867,
      "embracing": 4868,
      "sophisticated": 4869,
      "blandford": 4870,
      "artificial": 4871,
      "aphrodite": 4872,
      "qualities": 4873,
      "provide": 4874,
      "progressive": 4875,
      "photons": 4876,
      "astronomy": 4877,
      "colossal": 4878,
      "namibia": 4879,
      "polynesian": 4880,
      "surveys": 4881,
      "constraints": 4882,
      "millions": 4883,
      "monasteries": 4884,
      "python": 4885,
      "croatia": 4886,
      "john": 4887,
      "immersed": 4888,
      "turkmenistan": 4889,
      "clusters": 4890,
      "hellenistic": 4891,
      "olympic": 4892,
      "acidic": 4893,
      "bhutan": 4894,
      "clyde": 4895,
      "cumul": 4896,
      "cdonald": 4897,
      "dutch": 4898,
      "glasgow": 4899,
      "hemisph": 4900,
      "jaguar": 4901,
      "kazakhstan": 4902,
      "miletus": 4903,
      "pengu": 4904,
      "senegal": 4905,
      "welsh": 4906,
      "initial": 4907,
      "regret": 4908,
      "reptile": 4909,
      "eddington": 4910,
      "stunning": 4911,
      "staple": 4912,
      "lebanon": 4913,
      "chichen": 4914,
      "embroi": 4915,
      "splitting": 4916,
      "spontaneous": 4917,
      "versailles": 4918,
      "socotra": 4919,
      "serengeti": 4920,
      "decrease": 4921,
      "antelope": 4922,
      "landlocked": 4923,
      "moscow": 4924,
      "modification": 4925,
      "mosaics": 4926,
      "mozambique": 4927,
      "beehive": 4928,
      "colosseum": 4929,
      "necropolis": 4930,
      "disciplinary": 4931,
      "malawi": 4932,
      "bernicia": 4933,
      "heptarchy": 4934,
      "cappadocia": 4935,
      "ogeneous": 4936,
      "achaemenid": 4937,
      "archaeological": 4938,
      "vegetables": 4939,
      "sardinia": 4940,
      "expansion": 4941,
      "switzerland": 4942,
      "thalassocratic": 4943,
      "bangladesh": 4944,
      "vocalizations": 4945,
      "10s": 4946,
      "28": 4947,
      "31": 4948,
      "33": 4949,
      "3r": 4950,
      "365": 4951,
      "55": 4952,
      "59": 4953,
      "90": 4954,
      "ail": 4955,
      "ade": 4956,
      "apo": 4957,
      "aqu": 4958,
      "ather": 4959,
      "aires": 4960,
      "bis": 4961,
      "bam": 4962,
      "bil": 4963,
      "big": 4964,
      "bad": 4965,
      "bone": 4966,
      "bire": 4967,
      "bated": 4968,
      "bors": 4969,
      "bism": 4970,
      "bour": 4971,
      "bond": 4972,
      "bore": 4973,
      "biss": 4974,
      "bones": 4975,
      "broad": 4976,
      "badmin": 4977,
      "bago": 4978,
      "boul": 4979,
      "cen": 4980,
      "cis": 4981,
      "cus": 4982,
      "cart": 4983,
      "cement": 4984,
      "case": 4985,
      "camp": 4986,
      "cision": 4987,
      "dal": 4988,
      "dam": 4989,
      "dian": 4990,
      "dop": 4991,
      "dav": 4992,
      "dend": 4993,
      "dron": 4994,
      "dip": 4995,
      "dak": 4996,
      "dog": 4997,
      "dres": 4998,
      "dwell": 4999,
      "driv": 5000,
      "drives": 5001,
      "daugh": 5002,
      "drin": 5003,
      "eon": 5004,
      "een": 5005,
      "ech": 5006,
      "ecol": 5007,
      "eigh": 5008,
      "ecli": 5009,
      "fla": 5010,
      "fly": 5011,
      "fum": 5012,
      "fount": 5013,
      "fru": 5014,
      "flight": 5015,
      "fize": 5016,
      "gl": 5017,
      "gin": 5018,
      "gle": 5019,
      "gil": 5020,
      "gut": 5021,
      "gall": 5022,
      "gav": 5023,
      "giz": 5024,
      "gence": 5025,
      "gong": 5026,
      "gative": 5027,
      "glit": 5028,
      "hw": 5029,
      "hin": 5030,
      "hing": 5031,
      "hong": 5032,
      "hatt": 5033,
      "hrain": 5034,
      "ie": 5035,
      "iw": 5036,
      "ius": 5037,
      "iot": 5038,
      "ients": 5039,
      "ifa": 5040,
      "ified": 5041,
      "iques": 5042,
      "ibly": 5043,
      "js": 5044,
      "jur": 5045,
      "jia": 5046,
      "jell": 5047,
      "json": 5048,
      "juli": 5049,
      "kon": 5050,
      "kent": 5051,
      "kur": 5052,
      "kom": 5053,
      "kland": 5054,
      "kab": 5055,
      "kid": 5056,
      "kina": 5057,
      "kely": 5058,
      "kill": 5059,
      "khar": 5060,
      "kale": 5061,
      "karab": 5062,
      "kni": 5063,
      "khal": 5064,
      "kinet": 5065,
      "krill": 5066,
      "kashi": 5067,
      "lı": 5068,
      "lle": 5069,
      "lman": 5070,
      "liz": 5071,
      "lind": 5072,
      "lution": 5073,
      "lush": 5074,
      "lisa": 5075,
      "mou": 5076,
      "mions": 5077,
      "might": 5078,
      "mary": 5079,
      "mural": 5080,
      "mely": 5081,
      "mour": 5082,
      "mcdonald": 5083,
      "nl": 5084,
      "nr": 5085,
      "ny": 5086,
      "nit": 5087,
      "nur": 5088,
      "nom": 5089,
      "nul": 5090,
      "nad": 5091,
      "nell": 5092,
      "nac": 5093,
      "ners": 5094,
      "nich": 5095,
      "nish": 5096,
      "nile": 5097,
      "nful": 5098,
      "nium": 5099,
      "nick": 5100,
      "nash": 5101,
      "nival": 5102,
      "napol": 5103,
      "nshire": 5104,
      "oth": 5105,
      "oke": 5106,
      "osh": 5107,
      "oons": 5108,
      "ohm": 5109,
      "pp": 5110,
      "pv": 5111,
      "pit": 5112,
      "pion": 5113,
      "pto": 5114,
      "pian": 5115,
      "pend": 5116,
      "pac": 5117,
      "plu": 5118,
      "pay": 5119,
      "pite": 5120,
      "pical": 5121,
      "pond": 5122,
      "pback": 5123,
      "ppet": 5124,
      "pasc": 5125,
      "pitu": 5126,
      "pisa": 5127,
      "pisid": 5128,
      "qatar": 5129,
      "rate": 5130,
      "rite": 5131,
      "rary": 5132,
      "rors": 5133,
      "rise": 5134,
      "rase": 5135,
      "rgy": 5136,
      "sin": 5137,
      "sig": 5138,
      "sian": 5139,
      "sul": 5140,
      "sag": 5141,
      "sid": 5142,
      "sized": 5143,
      "sque": 5144,
      "swarm": 5145,
      "svet": 5146,
      "tp": 5147,
      "tz": 5148,
      "tent": 5149,
      "tap": 5150,
      "tect": 5151,
      "tab": 5152,
      "tine": 5153,
      "tend": 5154,
      "tid": 5155,
      "tions": 5156,
      "tact": 5157,
      "try": 5158,
      "trian": 5159,
      "tional": 5160,
      "takes": 5161,
      "telling": 5162,
      "tabo": 5163,
      "tango": 5164,
      "uy": 5165,
      "uat": 5166,
      "ura": 5167,
      "uge": 5168,
      "ula": 5169,
      "uber": 5170,
      "uvi": 5171,
      "uba": 5172,
      "ugo": 5173,
      "uitive": 5174,
      "vm": 5175,
      "vre": 5176,
      "vian": 5177,
      "vive": 5178,
      "vors": 5179,
      "vice": 5180,
      "vavil": 5181,
      "wer": 5182,
      "wre": 5183,
      "wis": 5184,
      "went": 5185,
      "wight": 5186,
      "women": 5187,
      "wool": 5188,
      "wax": 5189,
      "wood": 5190,
      "wright": 5191,
      "xen": 5192,
      "xor": 5193,
      "xanth": 5194,
      "yr": 5195,
      "yer": 5196,
      "ybas": 5197,
      "ylang": 5198,
      "yfish": 5199,
      "ymes": 5200,
      "yemen": 5201,
      "yugo": 5202,
      "zi": 5203,
      "zes": 5204,
      "zing": 5205,
      "zel": 5206,
      "zig": 5207,
      "zones": 5208,
      "zkashi": 5209,
      "zymes": 5210,
      "ælle": 5211,
      "thy": 5212,
      "thin": 5213,
      "thom": 5214,
      "tholic": 5215,
      "thclyde": 5216,
      "themat": 5217,
      "thenon": 5218,
      "ano": 5219,
      "anian": 5220,
      "ancial": 5221,
      "anjar": 5222,
      "anisot": 5223,
      "iny": 5224,
      "inal": 5225,
      "inse": 5226,
      "inde": 5227,
      "inid": 5228,
      "infer": 5229,
      "inox": 5230,
      "inference": 5231,
      "initi": 5232,
      "inscript": 5233,
      "innov": 5234,
      "ondu": 5235,
      "onium": 5236,
      "erion": 5237,
      "erge": 5238,
      "eries": 5239,
      "erak": 5240,
      "errors": 5241,
      "alk": 5242,
      "alt": 5243,
      "aly": 5244,
      "alas": 5245,
      "alus": 5246,
      "alia": 5247,
      "alone": 5248,
      "alph": 5249,
      "alfre": 5250,
      "alism": 5251,
      "aldic": 5252,
      "alba": 5253,
      "alham": 5254,
      "atp": 5255,
      "aton": 5256,
      "atra": 5257,
      "atial": 5258,
      "ators": 5259,
      "atomic": 5260,
      "rees": 5261,
      "reed": 5262,
      "rece": 5263,
      "rede": 5264,
      "rene": 5265,
      "react": 5266,
      "repla": 5267,
      "recor": 5268,
      "remot": 5269,
      "replic": 5270,
      "respir": 5271,
      "rebirth": 5272,
      "ened": 5273,
      "enge": 5274,
      "ense": 5275,
      "enne": 5276,
      "enue": 5277,
      "enque": 5278,
      "enos": 5279,
      "enship": 5280,
      "enna": 5281,
      "encies": 5282,
      "enthus": 5283,
      "enzymes": 5284,
      "energe": 5285,
      "ised": 5286,
      "isme": 5287,
      "isdic": 5288,
      "isenberg": 5289,
      "ora": 5290,
      "ork": 5291,
      "orn": 5292,
      "orno": 5293,
      "orbit": 5294,
      "orphic": 5295,
      "oracle": 5296,
      "orbits": 5297,
      "ita": 5298,
      "itat": 5299,
      "iting": 5300,
      "itron": 5301,
      "itants": 5302,
      "itvice": 5303,
      "essex": 5304,
      "eswat": 5305,
      "arl": 5306,
      "arm": 5307,
      "arity": 5308,
      "arant": 5309,
      "ardom": 5310,
      "ariz": 5311,
      "arthro": 5312,
      "arbit": 5313,
      "ask": 5314,
      "asy": 5315,
      "edback": 5316,
      "iced": 5317,
      "icce": 5318,
      "icia": 5319,
      "icos": 5320,
      "icago": 5321,
      "ingy": 5322,
      "inging": 5323,
      "ingence": 5324,
      "andria": 5325,
      "andrase": 5326,
      "ented": 5327,
      "entering": 5328,
      "roof": 5329,
      "root": 5330,
      "romo": 5331,
      "round": 5332,
      "roset": 5333,
      "roche": 5334,
      "roses": 5335,
      "rosco": 5336,
      "sto": 5337,
      "stom": 5338,
      "stim": 5339,
      "stad": 5340,
      "stable": 5341,
      "stories": 5342,
      "tox": 5343,
      "toom": 5344,
      "toast": 5345,
      "towards": 5346,
      "tobago": 5347,
      "tolman": 5348,
      "raction": 5349,
      "elk": 5350,
      "elin": 5351,
      "elev": 5352,
      "elberg": 5353,
      "elastic": 5354,
      "oles": 5355,
      "urn": 5356,
      "uru": 5357,
      "omo": 5358,
      "leto": 5359,
      "leip": 5360,
      "lept": 5361,
      "lemur": 5362,
      "leaning": 5363,
      "leaving": 5364,
      "letoon": 5365,
      "left": 5366,
      "imple": 5367,
      "impul": 5368,
      "impressive": 5369,
      "imanjar": 5370,
      "chu": 5371,
      "ched": 5372,
      "chlor": 5373,
      "chalk": 5374,
      "chicago": 5375,
      "chandrase": 5376,
      "chromo": 5377,
      "gets": 5378,
      "seph": 5379,
      "semic": 5380,
      "section": 5381,
      "sepolis": 5382,
      "cium": 5383,
      "forum": 5384,
      "washing": 5385,
      "ctor": 5386,
      "emy": 5387,
      "emit": 5388,
      "emir": 5389,
      "embed": 5390,
      "ami": 5391,
      "amas": 5392,
      "amic": 5393,
      "amus": 5394,
      "amount": 5395,
      "ili": 5396,
      "ils": 5397,
      "ilies": 5398,
      "ilizes": 5399,
      "illumin": 5400,
      "tery": 5401,
      "terly": 5402,
      "traver": 5403,
      "traff": 5404,
      "track": 5405,
      "trains": 5406,
      "spot": 5407,
      "spital": 5408,
      "spice": 5409,
      "spaw": 5410,
      "spann": 5411,
      "spatial": 5412,
      "unst": 5413,
      "unru": 5414,
      "unofficial": 5415,
      "uncharged": 5416,
      "unsupervised": 5417,
      "unlabeled": 5418,
      "pua": 5419,
      "puppet": 5420,
      "laun": 5421,
      "lava": 5422,
      "lakot": 5423,
      "versal": 5424,
      "ceeding": 5425,
      "sok": 5426,
      "soviet": 5427,
      "conry": 5428,
      "confin": 5429,
      "constru": 5430,
      "users": 5431,
      "usole": 5432,
      "blends": 5433,
      "block": 5434,
      "mann": 5435,
      "manate": 5436,
      "mangro": 5437,
      "mansa": 5438,
      "manages": 5439,
      "igger": 5440,
      "iana": 5441,
      "sers": 5442,
      "sert": 5443,
      "serbia": 5444,
      "utz": 5445,
      "utilizes": 5446,
      "deer": 5447,
      "deco": 5448,
      "debe": 5449,
      "defe": 5450,
      "defeat": 5451,
      "debated": 5452,
      "whir": 5453,
      "ived": 5454,
      "ivory": 5455,
      "ivals": 5456,
      "etes": 5457,
      "etry": 5458,
      "etics": 5459,
      "ulated": 5460,
      "uldron": 5461,
      "adro": 5462,
      "adop": 5463,
      "aders": 5464,
      "addi": 5465,
      "adren": 5466,
      "domain": 5467,
      "moss": 5468,
      "moons": 5469,
      "moose": 5470,
      "mohen": 5471,
      "mosque": 5472,
      "moerak": 5473,
      "poei": 5474,
      "poetry": 5475,
      "esting": 5476,
      "artist": 5477,
      "cosm": 5478,
      "coins": 5479,
      "coher": 5480,
      "cobra": 5481,
      "copen": 5482,
      "derived": 5483,
      "ells": 5484,
      "apor": 5485,
      "apag": 5486,
      "apple": 5487,
      "apolis": 5488,
      "aphor": 5489,
      "oppon": 5490,
      "quest": 5491,
      "main": 5492,
      "mail": 5493,
      "mafro": 5494,
      "mathemat": 5495,
      "mausole": 5496,
      "published": 5497,
      "proposes": 5498,
      "provision": 5499,
      "avel": 5500,
      "avog": 5501,
      "avail": 5502,
      "avenue": 5503,
      "upon": 5504,
      "upward": 5505,
      "abund": 5506,
      "abolic": 5507,
      "becom": 5508,
      "becomes": 5509,
      "bekistan": 5510,
      "php": 5511,
      "phate": 5512,
      "kept": 5513,
      "exact": 5514,
      "extre": 5515,
      "explic": 5516,
      "expressed": 5517,
      "exclusion": 5518,
      "exuber": 5519,
      "exceeding": 5520,
      "empty": 5521,
      "irt": 5522,
      "irical": 5523,
      "irregularly": 5524,
      "lyn": 5525,
      "lyrics": 5526,
      "lydian": 5527,
      "mint": 5528,
      "mined": 5529,
      "rio": 5530,
      "rial": 5531,
      "rika": 5532,
      "word": 5533,
      "lius": 5534,
      "liest": 5535,
      "lides": 5536,
      "lification": 5537,
      "lifel": 5538,
      "liech": 5539,
      "likely": 5540,
      "colnshire": 5541,
      "overlord": 5542,
      "synch": 5543,
      "shru": 5544,
      "shock": 5545,
      "shetland": 5546,
      "comor": 5547,
      "compt": 5548,
      "compress": 5549,
      "compil": 5550,
      "compan": 5551,
      "composition": 5552,
      "compared": 5553,
      "umer": 5554,
      "umbo": 5555,
      "audi": 5556,
      "augu": 5557,
      "octo": 5558,
      "ocking": 5559,
      "occas": 5560,
      "ocyt": 5561,
      "endemic": 5562,
      "agm": 5563,
      "agile": 5564,
      "anger": 5565,
      "idden": 5566,
      "idelberg": 5567,
      "ghana": 5568,
      "neto": 5569,
      "nept": 5570,
      "negative": 5571,
      "ements": 5572,
      "portable": 5573,
      "prey": 5574,
      "preserving": 5575,
      "precurs": 5576,
      "precision": 5577,
      "acqu": 5578,
      "access": 5579,
      "accor": 5580,
      "accompan": 5581,
      "dust": 5582,
      "dubai": 5583,
      "dugong": 5584,
      "creas": 5585,
      "luxor": 5586,
      "canal": 5587,
      "actors": 5588,
      "actually": 5589,
      "formula": 5590,
      "romantic": 5591,
      "pled": 5592,
      "plate": 5593,
      "plitvice": 5594,
      "empires": 5595,
      "oded": 5596,
      "basalt": 5597,
      "context": 5598,
      "contigu": 5599,
      "county": 5600,
      "meal": 5601,
      "means": 5602,
      "interface": 5603,
      "interfaces": 5604,
      "interdisciplinary": 5605,
      "diseas": 5606,
      "dissolution": 5607,
      "prismatic": 5608,
      "peace": 5609,
      "strict": 5610,
      "190": 5611,
      "1918": 5612,
      "1914": 5613,
      "outs": 5614,
      "outside": 5615,
      "outputs": 5616,
      "scar": 5617,
      "scene": 5618,
      "scaling": 5619,
      "ffiti": 5620,
      "earliest": 5621,
      "bral": 5622,
      "brine": 5623,
      "bright": 5624,
      "brick": 5625,
      "bringing": 5626,
      "igned": 5627,
      "ignment": 5628,
      "buzkashi": 5629,
      "buenos": 5630,
      "feedback": 5631,
      "bert": 5632,
      "berlin": 5633,
      "perth": 5634,
      "pertur": 5635,
      "pergam": 5636,
      "persepolis": 5637,
      "permafro": 5638,
      "ckish": 5639,
      "ckism": 5640,
      "greco": 5641,
      "greeting": 5642,
      "loo": 5643,
      "los": 5644,
      "lost": 5645,
      "loose": 5646,
      "eval": 5647,
      "micronesia": 5648,
      "despot": 5649,
      "despite": 5650,
      "dessert": 5651,
      "hebri": 5652,
      "heisenberg": 5653,
      "heidelberg": 5654,
      "partly": 5655,
      "aka": 5656,
      "fresco": 5657,
      "nosql": 5658,
      "turtle": 5659,
      "tenstein": 5660,
      "soup": 5661,
      "soufri": 5662,
      "weigh": 5663,
      "engers": 5664,
      "nordic": 5665,
      "movements": 5666,
      "poly": 5667,
      "poles": 5668,
      "pollution": 5669,
      "grazes": 5670,
      "graffiti": 5671,
      "dium": 5672,
      "diverse": 5673,
      "capable": 5674,
      "unification": 5675,
      "unifying": 5676,
      "universal": 5677,
      "mara": 5678,
      "maria": 5679,
      "mariana": 5680,
      "pted": 5681,
      "pting": 5682,
      "fifa": 5683,
      "symbolism": 5684,
      "rites": 5685,
      "ctioned": 5686,
      "medi": 5687,
      "medical": 5688,
      "founders": 5689,
      "ogi": 5690,
      "fictional": 5691,
      "hub": 5692,
      "huds": 5693,
      "tach": 5694,
      "taiw": 5695,
      "curve": 5696,
      "siber": 5697,
      "cache": 5698,
      "catholic": 5699,
      "caicos": 5700,
      "cauldron": 5701,
      "capoei": 5702,
      "cartoon": 5703,
      "carnival": 5704,
      "lawyer": 5705,
      "surrealism": 5706,
      "surfing": 5707,
      "genre": 5708,
      "genetics": 5709,
      "palenque": 5710,
      "wara": 5711,
      "continued": 5712,
      "continuing": 5713,
      "banned": 5714,
      "positron": 5715,
      "180": 5716,
      "184": 5717,
      "1815": 5718,
      "1861": 5719,
      "ibility": 5720,
      "ibati": 5721,
      "mura": 5722,
      "refer": 5723,
      "refract": 5724,
      "reflex": 5725,
      "refuge": 5726,
      "derness": 5727,
      "assignment": 5728,
      "highland": 5729,
      "modernist": 5730,
      "safe": 5731,
      "sahar": 5732,
      "miles": 5733,
      "newton": 5734,
      "newlyn": 5735,
      "bok": 5736,
      "bohem": 5737,
      "timur": 5738,
      "borneo": 5739,
      "dye": 5740,
      "fully": 5741,
      "lightest": 5742,
      "solve": 5743,
      "veh": 5744,
      "microservices": 5745,
      "cultures": 5746,
      "aean": 5747,
      "ensure": 5748,
      "ensive": 5749,
      "correlated": 5750,
      "correlations": 5751,
      "capitalism": 5752,
      "parameter": 5753,
      "parthenon": 5754,
      "tsardom": 5755,
      "opera": 5756,
      "operate": 5757,
      "operates": 5758,
      "operating": 5759,
      "wildebe": 5760,
      "wilderness": 5761,
      "westarctica": 5762,
      "coastline": 5763,
      "finland": 5764,
      "finnish": 5765,
      "financial": 5766,
      "rice": 5767,
      "rict": 5768,
      "distinguish": 5769,
      "district": 5770,
      "flux": 5771,
      "birds": 5772,
      "obtain": 5773,
      "iceberg": 5774,
      "pathetic": 5775,
      "pauli": 5776,
      "papua": 5777,
      "longer": 5778,
      "patara": 5779,
      "constantly": 5780,
      "fermented": 5781,
      "fermions": 5782,
      "musa": 5783,
      "muscular": 5784,
      "flames": 5785,
      "wedding": 5786,
      "visited": 5787,
      "dick": 5788,
      "easy": 5789,
      "easter": 5790,
      "rivers": 5791,
      "technological": 5792,
      "cooperate": 5793,
      "cooperating": 5794,
      "citing": 5795,
      "intended": 5796,
      "intuitive": 5797,
      "pressing": 5798,
      "northwest": 5799,
      "bodia": 5800,
      "dahome": 5801,
      "galicia": 5802,
      "galapag": 5803,
      "monte": 5804,
      "monarch": 5805,
      "vienna": 5806,
      "undergo": 5807,
      "attribut": 5808,
      "efs": 5809,
      "206": 5810,
      "baham": 5811,
      "baikal": 5812,
      "bahrain": 5813,
      "goths": 5814,
      "guard": 5815,
      "guarant": 5816,
      "thought": 5817,
      "reson": 5818,
      "rocks": 5819,
      "street": 5820,
      "stress": 5821,
      "streets": 5822,
      "president": 5823,
      "famously": 5824,
      "magnetized": 5825,
      "magnetism": 5826,
      "magnetorot": 5827,
      "cyber": 5828,
      "cyprus": 5829,
      "cycles": 5830,
      "cubism": 5831,
      "custom": 5832,
      "helium": 5833,
      "helps": 5834,
      "helena": 5835,
      "salar": 5836,
      "salad": 5837,
      "simul": 5838,
      "markov": 5839,
      "generation": 5840,
      "dynamical": 5841,
      "belong": 5842,
      "heracle": 5843,
      "heraldic": 5844,
      "person": 5845,
      "persia": 5846,
      "persist": 5847,
      "realm": 5848,
      "reality": 5849,
      "considers": 5850,
      "days": 5851,
      "motor": 5852,
      "motmot": 5853,
      "statically": 5854,
      "rainy": 5855,
      "rainfall": 5856,
      "teamwork": 5857,
      "ios": 5858,
      "untary": 5859,
      "painterly": 5860,
      "transport": 5861,
      "vesuvi": 5862,
      "146": 5863,
      "147": 5864,
      "1440": 5865,
      "pork": 5866,
      "texan": 5867,
      "organs": 5868,
      "associations": 5869,
      "irony": 5870,
      "breeds": 5871,
      "osity": 5872,
      "starry": 5873,
      "straw": 5874,
      "strait": 5875,
      "strabo": 5876,
      "strathclyde": 5877,
      "phenomena": 5878,
      "matic": 5879,
      "moldov": 5880,
      "torn": 5881,
      "torch": 5882,
      "tusks": 5883,
      "tuscany": 5884,
      "proven": 5885,
      "planes": 5886,
      "planets": 5887,
      "described": 5888,
      "clip": 5889,
      "flowing": 5890,
      "narrative": 5891,
      "machu": 5892,
      "freezing": 5893,
      "subfield": 5894,
      "subset": 5895,
      "players": 5896,
      "nicarag": 5897,
      "istanbul": 5898,
      "presentation": 5899,
      "controvers": 5900,
      "predictive": 5901,
      "predictions": 5902,
      "globalization": 5903,
      "epics": 5904,
      "collectivity": 5905,
      "shapes": 5906,
      "brackish": 5907,
      "seeks": 5908,
      "designs": 5909,
      "objective": 5910,
      "objectives": 5911,
      "connection": 5912,
      "controller": 5913,
      "cotta": 5914,
      "storytelling": 5915,
      "windiest": 5916,
      "ardo": 5917,
      "spectral": 5918,
      "spectrum": 5919,
      "liberty": 5920,
      "scots": 5921,
      "transn": 5922,
      "transitions": 5923,
      "translates": 5924,
      "equations": 5925,
      "equinox": 5926,
      "pastry": 5927,
      "ruler": 5928,
      "title": 5929,
      "containers": 5930,
      "caesar": 5931,
      "talossa": 5932,
      "bark": 5933,
      "ethnic": 5934,
      "hung": 5935,
      "hungarian": 5936,
      "humpback": 5937,
      "homeost": 5938,
      "passion": 5939,
      "waitomo": 5940,
      "reaches": 5941,
      "sprays": 5942,
      "sharp": 5943,
      "bloodstream": 5944,
      "horseback": 5945,
      "burj": 5946,
      "bury": 5947,
      "burning": 5948,
      "burkina": 5949,
      "dolls": 5950,
      "fringence": 5951,
      "limited": 5952,
      "myster": 5953,
      "mycen": 5954,
      "myelin": 5955,
      "nerves": 5956,
      "seleu": 5957,
      "ukkale": 5958,
      "onses": 5959,
      "onsæte": 5960,
      "promotes": 5961,
      "permanently": 5962,
      "periods": 5963,
      "periodic": 5964,
      "periodically": 5965,
      "125": 5966,
      "1266": 5967,
      "1279": 5968,
      "177": 5969,
      "178": 5970,
      "hybrid": 5971,
      "jie": 5972,
      "janei": 5973,
      "intens": 5974,
      "convergence": 5975,
      "scattered": 5976,
      "parker": 5977,
      "absorption": 5978,
      "oxide": 5979,
      "pottery": 5980,
      "characteristics": 5981,
      "citizenship": 5982,
      "residence": 5983,
      "tropical": 5984,
      "restored": 5985,
      "restrial": 5986,
      "challenge": 5987,
      "difficult": 5988,
      "birthday": 5989,
      "drawing": 5990,
      "materiality": 5991,
      "caly": 5992,
      "calcul": 5993,
      "calcium": 5994,
      "critiques": 5995,
      "criterion": 5996,
      "influential": 5997,
      "offspring": 5998,
      "conduit": 5999,
      "contributions": 6000,
      "independently": 6001,
      "commemor": 6002,
      "ably": 6003,
      "crypto": 6004,
      "gametes": 6005,
      "members": 6006,
      "singapo": 6007,
      "tonic": 6008,
      "tonalism": 6009,
      "zeus": 6010,
      "1972": 6011,
      "significantly": 6012,
      "brow": 6013,
      "brother": 6014,
      "browed": 6015,
      "broker": 6016,
      "broken": 6017,
      "habitat": 6018,
      "midsummer": 6019,
      "shortest": 6020,
      "combine": 6021,
      "combination": 6022,
      "brittonic": 6023,
      "distributional": 6024,
      "difference": 6025,
      "conducting": 6026,
      "1682": 6027,
      "kilimanjar": 6028,
      "nuclear": 6029,
      "runtime": 6030,
      "runners": 6031,
      "asteroid": 6032,
      "seasoned": 6033,
      "seasonal": 6034,
      "decision": 6035,
      "computation": 6036,
      "computations": 6037,
      "1951": 6038,
      "1957": 6039,
      "populous": 6040,
      "populated": 6041,
      "gravitationally": 6042,
      "close": 6043,
      "closer": 6044,
      "faroese": 6045,
      "faroe": 6046,
      "gives": 6047,
      "giving": 6048,
      "hospital": 6049,
      "lining": 6050,
      "lincolnshire": 6051,
      "sands": 6052,
      "inhabitants": 6053,
      "responses": 6054,
      "revolt": 6055,
      "stands": 6056,
      "versity": 6057,
      "directions": 6058,
      "caspian": 6059,
      "joining": 6060,
      "joseph": 6061,
      "pancreas": 6062,
      "useful": 6063,
      "ashing": 6064,
      "amplification": 6065,
      "dominica": 6066,
      "dominance": 6067,
      "mayan": 6068,
      "extend": 6069,
      "extended": 6070,
      "identical": 6071,
      "grapher": 6072,
      "graphic": 6073,
      "dynasties": 6074,
      "electronic": 6075,
      "kyrgy": 6076,
      "metal": 6077,
      "metaphor": 6078,
      "swing": 6079,
      "swiss": 6080,
      "swah": 6081,
      "swift": 6082,
      "consumer": 6083,
      "shifts": 6084,
      "internationally": 6085,
      "clouds": 6086,
      "complexity": 6087,
      "federal": 6088,
      "federation": 6089,
      "federated": 6090,
      "catastro": 6091,
      "cataly": 6092,
      "festivals": 6093,
      "hierapolis": 6094,
      "invaders": 6095,
      "increases": 6096,
      "establish": 6097,
      "establishing": 6098,
      "polarized": 6099,
      "classes": 6100,
      "classical": 6101,
      "electrodynamics": 6102,
      "observing": 6103,
      "observation": 6104,
      "observable": 6105,
      "does": 6106,
      "doct": 6107,
      "practiced": 6108,
      "sounds": 6109,
      "stuckism": 6110,
      "terracotta": 6111,
      "occupy": 6112,
      "figuration": 6113,
      "integrate": 6114,
      "2004": 6115,
      "bull": 6116,
      "flooded": 6117,
      "lamb": 6118,
      "nauru": 6119,
      "sanctioned": 6120,
      "victory": 6121,
      "victoria": 6122,
      "analyt": 6123,
      "striped": 6124,
      "spheric": 6125,
      "extensively": 6126,
      "competition": 6127,
      "1947": 6128,
      "1948": 6129,
      "1984": 6130,
      "1991": 6131,
      "1990s": 6132,
      "featured": 6133,
      "performances": 6134,
      "colonialism": 6135,
      "1880": 6136,
      "responsible": 6137,
      "squares": 6138,
      "evolutionary": 6139,
      "measured": 6140,
      "bayesian": 6141,
      "crust": 6142,
      "daro": 6143,
      "darwin": 6144,
      "messages": 6145,
      "messengers": 6146,
      "tribes": 6147,
      "vinci": 6148,
      "vincent": 6149,
      "wallis": 6150,
      "rawi": 6151,
      "imagines": 6152,
      "imaginary": 6153,
      "layered": 6154,
      "regulate": 6155,
      "typically": 6156,
      "resistance": 6157,
      "resistivity": 6158,
      "speeds": 6159,
      "volcanoes": 6160,
      "caliphate": 6161,
      "incorporate": 6162,
      "demonstrated": 6163,
      "demonstrating": 6164,
      "demonstrations": 6165,
      "maintains": 6166,
      "aiming": 6167,
      "cambodia": 6168,
      "franz": 6169,
      "franks": 6170,
      "francis": 6171,
      "homogeneous": 6172,
      "kenstein": 6173,
      "maddp": 6174,
      "picchu": 6175,
      "slaves": 6176,
      "slavia": 6177,
      "viruses": 6178,
      "imperfect": 6179,
      "defines": 6180,
      "defined": 6181,
      "collaps": 6182,
      "neutral": 6183,
      "luminosity": 6184,
      "depiction": 6185,
      "efficient": 6186,
      "efficiently": 6187,
      "vibrations": 6188,
      "results": 6189,
      "ceremonial": 6190,
      "subjects": 6191,
      "approaches": 6192,
      "deploying": 6193,
      "athena": 6194,
      "club": 6195,
      "firehole": 6196,
      "fjords": 6197,
      "pipe": 6198,
      "trinid": 6199,
      "trigger": 6200,
      "atmospheres": 6201,
      "robots": 6202,
      "robotic": 6203,
      "travels": 6204,
      "traveling": 6205,
      "adapted": 6206,
      "adapting": 6207,
      "ridge": 6208,
      "columns": 6209,
      "automation": 6210,
      "automate": 6211,
      "formerly": 6212,
      "1870s": 6213,
      "paradox": 6214,
      "flourishing": 6215,
      "counterpart": 6216,
      "counterintuitive": 6217,
      "moroccan": 6218,
      "standardized": 6219,
      "democracy": 6220,
      "icelandic": 6221,
      "apostle": 6222,
      "document": 6223,
      "felt": 6224,
      "gestural": 6225,
      "handball": 6226,
      "hanging": 6227,
      "knitting": 6228,
      "alexandria": 6229,
      "releases": 6230,
      "encompassing": 6231,
      "leonardo": 6232,
      "emeral": 6233,
      "determining": 6234,
      "decorative": 6235,
      "possible": 6236,
      "possibly": 6237,
      "magma": 6238,
      "magneto": 6239,
      "magonsæte": 6240,
      "explain": 6241,
      "explains": 6242,
      "explained": 6243,
      "astrophysical": 6244,
      "neighboring": 6245,
      "scripting": 6246,
      "indonesian": 6247,
      "1890": 6248,
      "1890s": 6249,
      "achievements": 6250,
      "stretches": 6251,
      "hydrogen": 6252,
      "typescript": 6253,
      "imperialism": 6254,
      "mongolia": 6255,
      "pompeii": 6256,
      "301": 6257,
      "average": 6258,
      "baked": 6259,
      "finger": 6260,
      "frozen": 6261,
      "html": 6262,
      "http": 6263,
      "kalmar": 6264,
      "kelvin": 6265,
      "pamukkale": 6266,
      "stalagm": 6267,
      "spaced": 6268,
      "conflict": 6269,
      "estimated": 6270,
      "macedon": 6271,
      "execut": 6272,
      "interpret": 6273,
      "interpreted": 6274,
      "1930s": 6275,
      "dilem": 6276,
      "sahrawi": 6277,
      "intelligent": 6278,
      "variation": 6279,
      "varieties": 6280,
      "mythical": 6281,
      "1795": 6282,
      "1797": 6283,
      "photoelectric": 6284,
      "photosynthesis": 6285,
      "vietnamese": 6286,
      "lithuanian": 6287,
      "argentinian": 6288,
      "israeli": 6289,
      "accelerating": 6290,
      "534": 6291,
      "aurum": 6292,
      "crater": 6293,
      "crime": 6294,
      "crusades": 6295,
      "crusade": 6296,
      "driest": 6297,
      "dripp": 6298,
      "everest": 6299,
      "falkland": 6300,
      "falconry": 6301,
      "gibral": 6302,
      "hagen": 6303,
      "kuiper": 6304,
      "loudon": 6305,
      "louvre": 6306,
      "masterpie": 6307,
      "nigeria": 6308,
      "pathway": 6309,
      "savoy": 6310,
      "sacred": 6311,
      "slogan": 6312,
      "sweet": 6313,
      "sweater": 6314,
      "sensory": 6315,
      "tattoo": 6316,
      "uzbekistan": 6317,
      "invention": 6318,
      "invented": 6319,
      "albania": 6320,
      "reducing": 6321,
      "geography": 6322,
      "geographer": 6323,
      "constructed": 6324,
      "extraction": 6325,
      "lymphatic": 6326,
      "component": 6327,
      "components": 6328,
      "angelo": 6329,
      "neuro": 6330,
      "credit": 6331,
      "credited": 6332,
      "meaningful": 6333,
      "displacement": 6334,
      "malaysian": 6335,
      "buoyant": 6336,
      "buoyancy": 6337,
      "insulin": 6338,
      "marino": 6339,
      "1860s": 6340,
      "skiing": 6341,
      "skeleton": 6342,
      "skeletal": 6343,
      "narrow": 6344,
      "containerization": 6345,
      "consisting": 6346,
      "circulating": 6347,
      "circulatory": 6348,
      "affects": 6349,
      "neighborhoods": 6350,
      "glowworm": 6351,
      "glowworms": 6352,
      "billion": 6353,
      "diagram": 6354,
      "ecuador": 6355,
      "faso": 6356,
      "female": 6357,
      "filled": 6358,
      "hindsight": 6359,
      "hampshire": 6360,
      "jutish": 6361,
      "kiribati": 6362,
      "lombar": 6363,
      "lungs": 6364,
      "mimic": 6365,
      "nabis": 6366,
      "nagorno": 6367,
      "pagod": 6368,
      "rhodes": 6369,
      "rhyth": 6370,
      "saba": 6371,
      "safety": 6372,
      "taylor": 6373,
      "tonga": 6374,
      "vanuat": 6375,
      "wolf": 6376,
      "zhangjia": 6377,
      "thailand": 6378,
      "theodore": 6379,
      "institution": 6380,
      "infinity": 6381,
      "infectious": 6382,
      "alternative": 6383,
      "remarkably": 6384,
      "ensemble": 6385,
      "encrypted": 6386,
      "oriented": 6387,
      "aristo": 6388,
      "assyrian": 6389,
      "leopard": 6390,
      "improving": 6391,
      "chicken": 6392,
      "unicorn": 6393,
      "contracts": 6394,
      "deciphering": 6395,
      "pocket": 6396,
      "quasars": 6397,
      "maurit": 6398,
      "proxy": 6399,
      "protein": 6400,
      "experim": 6401,
      "augmented": 6402,
      "academy": 6403,
      "michelangelo": 6404,
      "sustainability": 6405,
      "grotto": 6406,
      "granada": 6407,
      "marshallese": 6408,
      "commercial": 6409,
      "1851": 6410,
      "millennium": 6411,
      "boxing": 6412,
      "steppe": 6413,
      "viewed": 6414,
      "understanding": 6415,
      "attack": 6416,
      "baobabs": 6417,
      "failures": 6418,
      "burgundy": 6419,
      "lindisfaras": 6420,
      "responds": 6421,
      "explores": 6422,
      "hieroglyphs": 6423,
      "hawaiian": 6424,
      "coordinate": 6425,
      "apollonius": 6426,
      "collaborate": 6427,
      "synapses": 6428,
      "children": 6429,
      "stalactites": 6430,
      "conflicting": 6431,
      "hemisphere": 6432,
      "penguin": 6433,
      "embroidered": 6434,
      "bamboo": 6435,
      "birefringence": 6436,
      "boreal": 6437,
      "bissau": 6438,
      "badminton": 6439,
      "boulders": 6440,
      "carta": 6441,
      "doppler": 6442,
      "david": 6443,
      "dendrites": 6444,
      "dipole": 6445,
      "dresden": 6446,
      "dwellings": 6447,
      "daughter": 6448,
      "ecolog": 6449,
      "eighth": 6450,
      "eclipse": 6451,
      "flavors": 6452,
      "fumar": 6453,
      "fountain": 6454,
      "fruit": 6455,
      "fizeau": 6456,
      "gave": 6457,
      "giza": 6458,
      "glitch": 6459,
      "hwicce": 6460,
      "jurisdic": 6461,
      "jellyfish": 6462,
      "julius": 6463,
      "komodo": 6464,
      "kabaddi": 6465,
      "kidneys": 6466,
      "karabakh": 6467,
      "knife": 6468,
      "khalifa": 6469,
      "kinetic": 6470,
      "lizard": 6471,
      "lindsey": 6472,
      "mouth": 6473,
      "mournful": 6474,
      "nrt": 6475,
      "nullius": 6476,
      "nicholas": 6477,
      "napoleon": 6478,
      "pluto": 6479,
      "pascal": 6480,
      "pituitary": 6481,
      "pisidian": 6482,
      "tidal": 6483,
      "tactics": 6484,
      "taboos": 6485,
      "uyuni": 6486,
      "vavilov": 6487,
      "xanthos": 6488,
      "yugoslavia": 6489,
      "thomas": 6490,
      "anisotropy": 6491,
      "insects": 6492,
      "index": 6493,
      "onductor": 6494,
      "alphab": 6495,
      "alfred": 6496,
      "alhambra": 6497,
      "redeemer": 6498,
      "replaced": 6499,
      "remote": 6500,
      "energetic": 6501,
      "eswatini": 6502,
      "arizona": 6503,
      "arthropod": 6504,
      "arbitrary": 6505,
      "rosetta": 6506,
      "stadium": 6507,
      "toomre": 6508,
      "elevation": 6509,
      "leipzig": 6510,
      "leptis": 6511,
      "impulses": 6512,
      "chandrasekhar": 6513,
      "semiconductor": 6514,
      "washington": 6515,
      "embedded": 6516,
      "travertine": 6517,
      "traffic": 6518,
      "spawn": 6519,
      "spanned": 6520,
      "unruh": 6521,
      "confined": 6522,
      "construction": 6523,
      "blockchain": 6524,
      "mangrove": 6525,
      "defeated": 6526,
      "adopted": 6527,
      "adrenal": 6528,
      "mohenjo": 6529,
      "moeraki": 6530,
      "coherent": 6531,
      "copenhagen": 6532,
      "mathematical": 6533,
      "mausoleum": 6534,
      "provisioning": 6535,
      "avogadro": 6536,
      "abundant": 6537,
      "becoming": 6538,
      "extremely": 6539,
      "explicit": 6540,
      "exuberant": 6541,
      "lifelong": 6542,
      "liechtenstein": 6543,
      "compton": 6544,
      "august": 6545,
      "ocytes": 6546,
      "neptune": 6547,
      "precisionism": 6548,
      "according": 6549,
      "accompanied": 6550,
      "contiguous": 6551,
      "disease": 6552,
      "pergamon": 6553,
      "permafrost": 6554,
      "despotate": 6555,
      "hebrides": 6556,
      "frescoes": 6557,
      "soufriere": 6558,
      "hudson": 6559,
      "taiwan": 6560,
      "capoeira": 6561,
      "cartoonish": 6562,
      "refractive": 6563,
      "saharan": 6564,
      "wildebeest": 6565,
      "dahomey": 6566,
      "galapagos": 6567,
      "undergoes": 6568,
      "bahamas": 6569,
      "guarante": 6570,
      "magnetorotational": 6571,
      "heraclea": 6572,
      "vesuvius": 6573,
      "nicaragua": 6574,
      "controversial": 6575,
      "homeostasis": 6576,
      "mysterious": 6577,
      "janeiro": 6578,
      "difficulty": 6579,
      "singapore": 6580,
      "kilimanjaro": 6581,
      "josephson": 6582,
      "kyrgyz": 6583,
      "metaphorical": 6584,
      "swahili": 6585,
      "catastrophic": 6586,
      "analytics": 6587,
      "maddpg": 6588,
      "trinidad": 6589,
      "vanuatu": 6590,
      "zhangjiajie": 6591
    },
    "merges": [
      [
        "t",
        "h"
      ],
      [
        "th",
        "e"
      ],
      [
        "a",
        "n"
      ],
      [
        "i",
        "n"
      ],
      [
        "o",
        "n"
      ],
      [
        "e",
        "r"
      ],
      [
        "a",
        "l"
      ],
      [
        "a",
        "t"
      ],
      [
        "o",
        "f"
      ],
      [
        "r",
        "e"
      ],
      [
        "e",
        "n"
      ],
      [
        "i",
        "s"
      ],
      [
        "o",
        "r"
      ],
      [
        "i",
        "t"
      ],
      [
        "i",
        "on"
      ],
      [
        "e",
        "s"
      ],
      [
        "a",
        "r"
      ],
      [
        "a",
        "s"
      ],
      [
        "e",
        "d"
      ],
      [
        "i",
        "c"
      ],
      [
        "in",
        "g"
      ],
      [
        "an",
        "d"
      ],
      [
        "en",
        "t"
      ],
      [
        "r",
        "o"
      ],
      [
        "s",
        "t"
      ],
      [
        "t",
        "o"
      ],
      [
        "r",
        "a"
      ],
      [
        "o",
        "u"
      ],
      [
        "e",
        "l"
      ],
      [
        "at",
        "ion"
      ],
      [
        "o",
        "l"
      ],
      [
        "u",
        "r"
      ],
      [
        "o",
        "m"
      ],
      [
        "l",
        "e"
      ],
      [
        "i",
        "m"
      ],
      [
        "c",
        "h"
      ],
      [
        "g",
        "e"
      ],
      [
        "s",
        "e"
      ],
      [
        "c",
        "i"
      ],
      [
        "f",
        "or"
      ],
      [
        "it",
        "y"
      ],
      [
        "w",
        "as"
      ],
      [
        "c",
        "t"
      ],
      [
        "e",
        "m"
      ],
      [
        "a",
        "m"
      ],
      [
        "i",
        "l"
      ],
      [
        "o",
        "w"
      ],
      [
        "t",
        "er"
      ],
      [
        "t",
        "ra"
      ],
      [
        "s",
        "p"
      ],
      [
        "u",
        "n"
      ],
      [
        "ation",
        "al"
      ],
      [
        "p",
        "u"
      ],
      [
        "l",
        "a"
      ],
      [
        "v",
        "er"
      ],
      [
        "i",
        "th"
      ],
      [
        "b",
        "y"
      ],
      [
        "it",
        "ion"
      ],
      [
        "c",
        "e"
      ],
      [
        "tra",
        "d"
      ],
      [
        "s",
        "o"
      ],
      [
        "n",
        "ational"
      ],
      [
        "w",
        "ith"
      ],
      [
        "c",
        "on"
      ],
      [
        "u",
        "s"
      ],
      [
        "b",
        "l"
      ],
      [
        "ou",
        "n"
      ],
      [
        "ci",
        "ent"
      ],
      [
        "trad",
        "ition"
      ],
      [
        "c",
        "ity"
      ],
      [
        "m",
        "an"
      ],
      [
        "i",
        "g"
      ],
      [
        "i",
        "an"
      ],
      [
        "o",
        "t"
      ],
      [
        "an",
        "cient"
      ],
      [
        "or",
        "t"
      ],
      [
        "tradition",
        "al"
      ],
      [
        "i",
        "a"
      ],
      [
        "s",
        "er"
      ],
      [
        "u",
        "t"
      ],
      [
        "d",
        "e"
      ],
      [
        "w",
        "h"
      ],
      [
        "is",
        "t"
      ],
      [
        "i",
        "v"
      ],
      [
        "th",
        "at"
      ],
      [
        "al",
        "l"
      ],
      [
        "k",
        "ing"
      ],
      [
        "an",
        "t"
      ],
      [
        "e",
        "t"
      ],
      [
        "l",
        "and"
      ],
      [
        "u",
        "l"
      ],
      [
        "a",
        "d"
      ],
      [
        "d",
        "om"
      ],
      [
        "m",
        "o"
      ],
      [
        "p",
        "o"
      ],
      [
        "it",
        "s"
      ],
      [
        "es",
        "t"
      ],
      [
        "ar",
        "t"
      ],
      [
        "c",
        "o"
      ],
      [
        "c",
        "ent"
      ],
      [
        "d",
        "er"
      ],
      [
        "at",
        "e"
      ],
      [
        "king",
        "dom"
      ],
      [
        "el",
        "l"
      ],
      [
        "y",
        "ser"
      ],
      [
        "ge",
        "yser"
      ],
      [
        "a",
        "p"
      ],
      [
        "o",
        "p"
      ],
      [
        "q",
        "u"
      ],
      [
        "m",
        "a"
      ],
      [
        "pu",
        "bl"
      ],
      [
        "publ",
        "ic"
      ],
      [
        "a",
        "re"
      ],
      [
        "p",
        "ro"
      ],
      [
        "e",
        "ct"
      ],
      [
        "u",
        "re"
      ],
      [
        "a",
        "v"
      ],
      [
        "u",
        "p"
      ],
      [
        "re",
        "public"
      ],
      [
        "a",
        "b"
      ],
      [
        "al",
        "so"
      ],
      [
        "on",
        "e"
      ],
      [
        "l",
        "ar"
      ],
      [
        "b",
        "e"
      ],
      [
        "i",
        "z"
      ],
      [
        "p",
        "h"
      ],
      [
        "in",
        "e"
      ],
      [
        "k",
        "e"
      ],
      [
        "e",
        "x"
      ],
      [
        "sp",
        "ort"
      ],
      [
        "ro",
        "m"
      ],
      [
        "se",
        "a"
      ],
      [
        "em",
        "p"
      ],
      [
        "i",
        "r"
      ],
      [
        "l",
        "y"
      ],
      [
        "b",
        "ut"
      ],
      [
        "m",
        "in"
      ],
      [
        "r",
        "i"
      ],
      [
        "i",
        "re"
      ],
      [
        "w",
        "or"
      ],
      [
        "l",
        "i"
      ],
      [
        "as",
        "t"
      ],
      [
        "im",
        "al"
      ],
      [
        "the",
        "r"
      ],
      [
        "c",
        "ol"
      ],
      [
        "f",
        "rom"
      ],
      [
        "o",
        "ver"
      ],
      [
        "s",
        "y"
      ],
      [
        "s",
        "h"
      ],
      [
        "an",
        "imal"
      ],
      [
        "n",
        "ow"
      ],
      [
        "ou",
        "s"
      ],
      [
        "c",
        "om"
      ],
      [
        "u",
        "m"
      ],
      [
        "a",
        "u"
      ],
      [
        "o",
        "c"
      ],
      [
        "en",
        "d"
      ],
      [
        "i",
        "es"
      ],
      [
        "a",
        "g"
      ],
      [
        "ig",
        "h"
      ],
      [
        "an",
        "g"
      ],
      [
        "cent",
        "ur"
      ],
      [
        "at",
        "er"
      ],
      [
        "at",
        "es"
      ],
      [
        "i",
        "d"
      ],
      [
        "oun",
        "t"
      ],
      [
        "r",
        "on"
      ],
      [
        "g",
        "h"
      ],
      [
        "n",
        "e"
      ],
      [
        "em",
        "ent"
      ],
      [
        "p",
        "ort"
      ],
      [
        "p",
        "re"
      ],
      [
        "a",
        "c"
      ],
      [
        "is",
        "land"
      ],
      [
        "d",
        "u"
      ],
      [
        "a",
        "in"
      ],
      [
        "c",
        "re"
      ],
      [
        "c",
        "la"
      ],
      [
        "f",
        "oun"
      ],
      [
        "m",
        "ent"
      ],
      [
        "le",
        "ar"
      ],
      [
        "l",
        "u"
      ],
      [
        "iv",
        "e"
      ],
      [
        "ion",
        "s"
      ],
      [
        "m",
        "ic"
      ],
      [
        "ul",
        "t"
      ],
      [
        "c",
        "an"
      ],
      [
        "a",
        "ct"
      ],
      [
        "r",
        "y"
      ],
      [
        "er",
        "s"
      ],
      [
        "for",
        "m"
      ],
      [
        "ter",
        "n"
      ],
      [
        "or",
        "y"
      ],
      [
        "ro",
        "man"
      ],
      [
        "p",
        "l"
      ],
      [
        "n",
        "ing"
      ],
      [
        "emp",
        "ire"
      ],
      [
        "o",
        "d"
      ],
      [
        "es",
        "s"
      ],
      [
        "a",
        "y"
      ],
      [
        "at",
        "ed"
      ],
      [
        "b",
        "as"
      ],
      [
        "con",
        "t"
      ],
      [
        "a",
        "ge"
      ],
      [
        "l",
        "d"
      ],
      [
        "en",
        "ce"
      ],
      [
        "ic",
        "h"
      ],
      [
        "up",
        "t"
      ],
      [
        "c",
        "ount"
      ],
      [
        "m",
        "e"
      ],
      [
        "in",
        "ter"
      ],
      [
        "er",
        "upt"
      ],
      [
        "s",
        "s"
      ],
      [
        "wor",
        "ld"
      ],
      [
        "d",
        "is"
      ],
      [
        "p",
        "r"
      ],
      [
        "p",
        "e"
      ],
      [
        "m",
        "al"
      ],
      [
        "o",
        "ther"
      ],
      [
        "ic",
        "a"
      ],
      [
        "st",
        "r"
      ],
      [
        "iz",
        "ed"
      ],
      [
        "1",
        "9"
      ],
      [
        "s",
        "u"
      ],
      [
        "t",
        "e"
      ],
      [
        "h",
        "as"
      ],
      [
        "ou",
        "t"
      ],
      [
        "i",
        "al"
      ],
      [
        "s",
        "c"
      ],
      [
        "im",
        "port"
      ],
      [
        "n",
        "am"
      ],
      [
        "centur",
        "y"
      ],
      [
        "at",
        "ing"
      ],
      [
        "at",
        "ure"
      ],
      [
        "d",
        "ed"
      ],
      [
        "f",
        "o"
      ],
      [
        "k",
        "now"
      ],
      [
        "wh",
        "ich"
      ],
      [
        "y",
        "ell"
      ],
      [
        "yell",
        "ow"
      ],
      [
        "d",
        "ing"
      ],
      [
        "import",
        "ant"
      ],
      [
        "f",
        "f"
      ],
      [
        "st",
        "one"
      ],
      [
        "lear",
        "ning"
      ],
      [
        "i",
        "p"
      ],
      [
        "e",
        "ar"
      ],
      [
        "g",
        "n"
      ],
      [
        "cla",
        "im"
      ],
      [
        "b",
        "r"
      ],
      [
        "ig",
        "n"
      ],
      [
        "know",
        "n"
      ],
      [
        "mo",
        "v"
      ],
      [
        "b",
        "u"
      ],
      [
        "f",
        "e"
      ],
      [
        "igh",
        "t"
      ],
      [
        "b",
        "er"
      ],
      [
        "a",
        "f"
      ],
      [
        "p",
        "er"
      ],
      [
        "count",
        "ry"
      ],
      [
        "yellow",
        "stone"
      ],
      [
        "c",
        "k"
      ],
      [
        "it",
        "e"
      ],
      [
        "ar",
        "y"
      ],
      [
        "s",
        "m"
      ],
      [
        "ic",
        "al"
      ],
      [
        "it",
        "al"
      ],
      [
        "g",
        "re"
      ],
      [
        "l",
        "o"
      ],
      [
        "ge",
        "other"
      ],
      [
        "de",
        "p"
      ],
      [
        "po",
        "pu"
      ],
      [
        "geother",
        "mal"
      ],
      [
        "e",
        "v"
      ],
      [
        "mic",
        "ron"
      ],
      [
        "lar",
        "g"
      ],
      [
        "d",
        "es"
      ],
      [
        "cent",
        "er"
      ],
      [
        "h",
        "e"
      ],
      [
        "p",
        "art"
      ],
      [
        "in",
        "d"
      ],
      [
        "in",
        "s"
      ],
      [
        "a",
        "k"
      ],
      [
        "f",
        "re"
      ],
      [
        "g",
        "over"
      ],
      [
        "l",
        "es"
      ],
      [
        "gover",
        "n"
      ],
      [
        "dep",
        "end"
      ],
      [
        "n",
        "o"
      ],
      [
        "t",
        "ur"
      ],
      [
        "ation",
        "s"
      ],
      [
        "ur",
        "al"
      ],
      [
        "ke",
        "y"
      ],
      [
        "b",
        "ol"
      ],
      [
        "t",
        "en"
      ],
      [
        "st",
        "em"
      ],
      [
        "sy",
        "stem"
      ],
      [
        "s",
        "ou"
      ],
      [
        "re",
        "d"
      ],
      [
        "h",
        "ist"
      ],
      [
        "w",
        "e"
      ],
      [
        "in",
        "depend"
      ],
      [
        "is",
        "h"
      ],
      [
        "or",
        "s"
      ],
      [
        "ro",
        "u"
      ],
      [
        "st",
        "ates"
      ],
      [
        "am",
        "er"
      ],
      [
        "bu",
        "il"
      ],
      [
        "sm",
        "all"
      ],
      [
        "rou",
        "gh"
      ],
      [
        "erupt",
        "ions"
      ],
      [
        "popu",
        "lar"
      ],
      [
        "g",
        "ro"
      ],
      [
        "w",
        "ater"
      ],
      [
        "en",
        "g"
      ],
      [
        "ser",
        "v"
      ],
      [
        "n",
        "or"
      ],
      [
        "on",
        "g"
      ],
      [
        "mov",
        "ement"
      ],
      [
        "ic",
        "an"
      ],
      [
        "p",
        "ol"
      ],
      [
        "v",
        "ol"
      ],
      [
        "d",
        "el"
      ],
      [
        "n",
        "ot"
      ],
      [
        "re",
        "g"
      ],
      [
        "g",
        "r"
      ],
      [
        "g",
        "ra"
      ],
      [
        "r",
        "u"
      ],
      [
        "d",
        "i"
      ],
      [
        "ter",
        "s"
      ],
      [
        "pr",
        "in"
      ],
      [
        "govern",
        "ment"
      ],
      [
        "b",
        "all"
      ],
      [
        "c",
        "ult"
      ],
      [
        "h",
        "av"
      ],
      [
        "u",
        "e"
      ],
      [
        "re",
        "co"
      ],
      [
        "us",
        "ed"
      ],
      [
        "p",
        "ow"
      ],
      [
        "is",
        "e"
      ],
      [
        "reco",
        "gn"
      ],
      [
        "c",
        "ap"
      ],
      [
        "qu",
        "e"
      ],
      [
        "independ",
        "ence"
      ],
      [
        "st",
        "ate"
      ],
      [
        "for",
        "c"
      ],
      [
        "un",
        "i"
      ],
      [
        "wh",
        "en"
      ],
      [
        "li",
        "ke"
      ],
      [
        "hist",
        "ory"
      ],
      [
        "m",
        "ar"
      ],
      [
        "an",
        "ce"
      ],
      [
        "c",
        "l"
      ],
      [
        "p",
        "t"
      ],
      [
        "an",
        "ge"
      ],
      [
        "so",
        "ci"
      ],
      [
        "sy",
        "m"
      ],
      [
        "f",
        "i"
      ],
      [
        "sym",
        "bol"
      ],
      [
        "c",
        "ess"
      ],
      [
        "r",
        "it"
      ],
      [
        "in",
        "c"
      ],
      [
        "ct",
        "ion"
      ],
      [
        "t",
        "y"
      ],
      [
        "v",
        "el"
      ],
      [
        "th",
        "rough"
      ],
      [
        "er",
        "e"
      ],
      [
        "ag",
        "ent"
      ],
      [
        "m",
        "ed"
      ],
      [
        "e",
        "ff"
      ],
      [
        "t",
        "ed"
      ],
      [
        "re",
        "l"
      ],
      [
        "is",
        "m"
      ],
      [
        "ist",
        "s"
      ],
      [
        "wor",
        "k"
      ],
      [
        "foun",
        "der"
      ],
      [
        "recogn",
        "ized"
      ],
      [
        "h",
        "ol"
      ],
      [
        "p",
        "le"
      ],
      [
        "f",
        "am"
      ],
      [
        "o",
        "g"
      ],
      [
        "wh",
        "o"
      ],
      [
        "ap",
        "e"
      ],
      [
        "col",
        "on"
      ],
      [
        "au",
        "str"
      ],
      [
        "island",
        "s"
      ],
      [
        "h",
        "ot"
      ],
      [
        "z",
        "ant"
      ],
      [
        "ic",
        "s"
      ],
      [
        "by",
        "zant"
      ],
      [
        "larg",
        "est"
      ],
      [
        "prin",
        "ci"
      ],
      [
        "f",
        "ic"
      ],
      [
        "h",
        "u"
      ],
      [
        "l",
        "ow"
      ],
      [
        "t",
        "a"
      ],
      [
        "com",
        "m"
      ],
      [
        "byzant",
        "ine"
      ],
      [
        "in",
        "a"
      ],
      [
        "c",
        "ur"
      ],
      [
        "g",
        "er"
      ],
      [
        "s",
        "i"
      ],
      [
        "om",
        "e"
      ],
      [
        "c",
        "a"
      ],
      [
        "v",
        "is"
      ],
      [
        "el",
        "d"
      ],
      [
        "se",
        "al"
      ],
      [
        "cont",
        "in"
      ],
      [
        "e",
        "ign"
      ],
      [
        "in",
        "to"
      ],
      [
        "ro",
        "y"
      ],
      [
        "ver",
        "eign"
      ],
      [
        "so",
        "vereign"
      ],
      [
        "fo",
        "ot"
      ],
      [
        "eff",
        "ect"
      ],
      [
        "c",
        "ar"
      ],
      [
        "un",
        "d"
      ],
      [
        "austr",
        "al"
      ],
      [
        "re",
        "ma"
      ],
      [
        "la",
        "w"
      ],
      [
        "centur",
        "ies"
      ],
      [
        "foun",
        "ded"
      ],
      [
        "buil",
        "t"
      ],
      [
        "j",
        "or"
      ],
      [
        "r",
        "ist"
      ],
      [
        "s",
        "ur"
      ],
      [
        "mo",
        "del"
      ],
      [
        "po",
        "st"
      ],
      [
        "pow",
        "er"
      ],
      [
        "l",
        "oc"
      ],
      [
        "m",
        "ult"
      ],
      [
        "el",
        "y"
      ],
      [
        "0",
        "0"
      ],
      [
        "b",
        "la"
      ],
      [
        "g",
        "en"
      ],
      [
        "ch",
        "rist"
      ],
      [
        "uni",
        "que"
      ],
      [
        "inc",
        "lu"
      ],
      [
        "l",
        "ang"
      ],
      [
        "p",
        "al"
      ],
      [
        "w",
        "ar"
      ],
      [
        "pu",
        "t"
      ],
      [
        "il",
        "y"
      ],
      [
        "po",
        "ol"
      ],
      [
        "contin",
        "u"
      ],
      [
        "e",
        "u"
      ],
      [
        "at",
        "ive"
      ],
      [
        "ou",
        "r"
      ],
      [
        "lang",
        "u"
      ],
      [
        "b",
        "an"
      ],
      [
        "in",
        "forc"
      ],
      [
        "re",
        "inforc"
      ],
      [
        "iv",
        "ity"
      ],
      [
        "po",
        "s"
      ],
      [
        "bla",
        "ck"
      ],
      [
        "reinforc",
        "ement"
      ],
      [
        "1",
        "8"
      ],
      [
        "i",
        "b"
      ],
      [
        "m",
        "u"
      ],
      [
        "the",
        "y"
      ],
      [
        "on",
        "d"
      ],
      [
        "ph",
        "il"
      ],
      [
        "a",
        "ch"
      ],
      [
        "l",
        "it"
      ],
      [
        "re",
        "f"
      ],
      [
        "oun",
        "d"
      ],
      [
        "der",
        "n"
      ],
      [
        "ger",
        "man"
      ],
      [
        "christ",
        "ian"
      ],
      [
        "b",
        "et"
      ],
      [
        "w",
        "ay"
      ],
      [
        "as",
        "s"
      ],
      [
        "le",
        "ct"
      ],
      [
        "pro",
        "t"
      ],
      [
        "a",
        "ce"
      ],
      [
        "c",
        "el"
      ],
      [
        "h",
        "igh"
      ],
      [
        "i",
        "le"
      ],
      [
        "ol",
        "is"
      ],
      [
        "am",
        "e"
      ],
      [
        "langu",
        "age"
      ],
      [
        "l",
        "ine"
      ],
      [
        "o",
        "re"
      ],
      [
        "r",
        "an"
      ],
      [
        "t",
        "emp"
      ],
      [
        "re",
        "n"
      ],
      [
        "en",
        "e"
      ],
      [
        "mo",
        "dern"
      ],
      [
        "l",
        "ater"
      ],
      [
        "s",
        "a"
      ],
      [
        "sp",
        "r"
      ],
      [
        "con",
        "st"
      ],
      [
        "we",
        "en"
      ],
      [
        "bet",
        "ween"
      ],
      [
        "m",
        "il"
      ],
      [
        "re",
        "ad"
      ],
      [
        "ch",
        "ange"
      ],
      [
        "man",
        "y"
      ],
      [
        "op",
        "olis"
      ],
      [
        "ma",
        "jor"
      ],
      [
        "af",
        "r"
      ],
      [
        "ar",
        "ch"
      ],
      [
        "ch",
        "ar"
      ],
      [
        "ne",
        "w"
      ],
      [
        "reg",
        "ion"
      ],
      [
        "b",
        "o"
      ],
      [
        "p",
        "la"
      ],
      [
        "t",
        "im"
      ],
      [
        "all",
        "y"
      ],
      [
        "col",
        "or"
      ],
      [
        "micron",
        "ation"
      ],
      [
        "b",
        "or"
      ],
      [
        "d",
        "y"
      ],
      [
        "es",
        "e"
      ],
      [
        "mo",
        "st"
      ],
      [
        "bas",
        "ed"
      ],
      [
        "ature",
        "s"
      ],
      [
        "gr",
        "and"
      ],
      [
        "hu",
        "man"
      ],
      [
        "c",
        "all"
      ],
      [
        "d",
        "est"
      ],
      [
        "f",
        "ul"
      ],
      [
        "l",
        "ight"
      ],
      [
        "s",
        "ol"
      ],
      [
        "v",
        "e"
      ],
      [
        "mic",
        "ro"
      ],
      [
        "cult",
        "ure"
      ],
      [
        "hav",
        "e"
      ],
      [
        "a",
        "e"
      ],
      [
        "a",
        "th"
      ],
      [
        "d",
        "an"
      ],
      [
        "i",
        "ous"
      ],
      [
        "l",
        "iv"
      ],
      [
        "n",
        "at"
      ],
      [
        "ol",
        "og"
      ],
      [
        "bl",
        "ue"
      ],
      [
        "cre",
        "ate"
      ],
      [
        "tur",
        "key"
      ],
      [
        "foot",
        "ball"
      ],
      [
        "en",
        "s"
      ],
      [
        "af",
        "ter"
      ],
      [
        "b",
        "ial"
      ],
      [
        "c",
        "or"
      ],
      [
        "st",
        "e"
      ],
      [
        "to",
        "ur"
      ],
      [
        "amer",
        "ican"
      ],
      [
        "cap",
        "ital"
      ],
      [
        "fi",
        "eld"
      ],
      [
        "austral",
        "ia"
      ],
      [
        "rema",
        "ins"
      ],
      [
        "cel",
        "e"
      ],
      [
        "nat",
        "ural"
      ],
      [
        "0",
        "s"
      ],
      [
        "p",
        "ar"
      ],
      [
        "t",
        "s"
      ],
      [
        "re",
        "min"
      ],
      [
        "ur",
        "ch"
      ],
      [
        "ch",
        "urch"
      ],
      [
        "la",
        "g"
      ],
      [
        "op",
        "er"
      ],
      [
        "ph",
        "y"
      ],
      [
        "act",
        "ivity"
      ],
      [
        "remin",
        "der"
      ],
      [
        "w",
        "il"
      ],
      [
        "w",
        "est"
      ],
      [
        "co",
        "ast"
      ],
      [
        "fo",
        "re"
      ],
      [
        "f",
        "in"
      ],
      [
        "h",
        "ow"
      ],
      [
        "n",
        "et"
      ],
      [
        "r",
        "ic"
      ],
      [
        "v",
        "ent"
      ],
      [
        "the",
        "re"
      ],
      [
        "il",
        "ity"
      ],
      [
        "d",
        "ist"
      ],
      [
        "f",
        "lu"
      ],
      [
        "r",
        "us"
      ],
      [
        "el",
        "ect"
      ],
      [
        "nam",
        "ed"
      ],
      [
        "part",
        "ic"
      ],
      [
        "princi",
        "pal"
      ],
      [
        "cele",
        "br"
      ],
      [
        "b",
        "ir"
      ],
      [
        "i",
        "er"
      ],
      [
        "o",
        "b"
      ],
      [
        "ic",
        "e"
      ],
      [
        "wh",
        "ere"
      ],
      [
        "ect",
        "ed"
      ],
      [
        "min",
        "er"
      ],
      [
        "19",
        "th"
      ],
      [
        "ear",
        "th"
      ],
      [
        "ear",
        "ly"
      ],
      [
        "serv",
        "ed"
      ],
      [
        "comm",
        "un"
      ],
      [
        "s",
        "ite"
      ],
      [
        "me",
        "ters"
      ],
      [
        "e",
        "ast"
      ],
      [
        "f",
        "lag"
      ],
      [
        "k",
        "s"
      ],
      [
        "p",
        "a"
      ],
      [
        "s",
        "un"
      ],
      [
        "s",
        "up"
      ],
      [
        "ar",
        "ound"
      ],
      [
        "ver",
        "y"
      ],
      [
        "min",
        "ut"
      ],
      [
        "fe",
        "atures"
      ],
      [
        "gre",
        "at"
      ],
      [
        "continu",
        "ous"
      ],
      [
        "principal",
        "ity"
      ],
      [
        "l",
        "ong"
      ],
      [
        "m",
        "ount"
      ],
      [
        "o",
        "ss"
      ],
      [
        "p",
        "at"
      ],
      [
        "im",
        "ate"
      ],
      [
        "ex",
        "am"
      ],
      [
        "roy",
        "al"
      ],
      [
        "mult",
        "i"
      ],
      [
        "const",
        "ant"
      ],
      [
        "f",
        "er"
      ],
      [
        "g",
        "an"
      ],
      [
        "m",
        "us"
      ],
      [
        "t",
        "w"
      ],
      [
        "it",
        "ary"
      ],
      [
        "ch",
        "y"
      ],
      [
        "iz",
        "ation"
      ],
      [
        "du",
        "chy"
      ],
      [
        "amer",
        "ica"
      ],
      [
        "f",
        "l"
      ],
      [
        "w",
        "ed"
      ],
      [
        "an",
        "a"
      ],
      [
        "of",
        "ten"
      ],
      [
        "ou",
        "gh"
      ],
      [
        "bl",
        "es"
      ],
      [
        "ul",
        "ar"
      ],
      [
        "gro",
        "w"
      ],
      [
        "vis",
        "it"
      ],
      [
        "d",
        "ic"
      ],
      [
        "e",
        "as"
      ],
      [
        "h",
        "is"
      ],
      [
        "s",
        "inter"
      ],
      [
        "at",
        "tra"
      ],
      [
        "is",
        "s"
      ],
      [
        "ro",
        "t"
      ],
      [
        "ch",
        "n"
      ],
      [
        "ab",
        "le"
      ],
      [
        "be",
        "c"
      ],
      [
        "ri",
        "ver"
      ],
      [
        "te",
        "chn"
      ],
      [
        "mil",
        "itary"
      ],
      [
        "b",
        "le"
      ],
      [
        "d",
        "at"
      ],
      [
        "r",
        "al"
      ],
      [
        "t",
        "ing"
      ],
      [
        "u",
        "al"
      ],
      [
        "con",
        "d"
      ],
      [
        "ot",
        "to"
      ],
      [
        "land",
        "sc"
      ],
      [
        "co",
        "oper"
      ],
      [
        "ma",
        "gn"
      ],
      [
        "ther",
        "n"
      ],
      [
        "form",
        "ation"
      ],
      [
        "exam",
        "ple"
      ],
      [
        "a",
        "it"
      ],
      [
        "b",
        "ac"
      ],
      [
        "c",
        "it"
      ],
      [
        "c",
        "ed"
      ],
      [
        "in",
        "t"
      ],
      [
        "er",
        "g"
      ],
      [
        "it",
        "ed"
      ],
      [
        "se",
        "cess"
      ],
      [
        "il",
        "l"
      ],
      [
        "ce",
        "an"
      ],
      [
        "lu",
        "c"
      ],
      [
        "su",
        "dan"
      ],
      [
        "gre",
        "e"
      ],
      [
        "spr",
        "ing"
      ],
      [
        "afr",
        "ica"
      ],
      [
        "bor",
        "der"
      ],
      [
        "liv",
        "ing"
      ],
      [
        "visit",
        "ors"
      ],
      [
        "secess",
        "ion"
      ],
      [
        "ow",
        "n"
      ],
      [
        "lar",
        "ge"
      ],
      [
        "pre",
        "ss"
      ],
      [
        "cre",
        "ated"
      ],
      [
        "nor",
        "th"
      ],
      [
        "eu",
        "ro"
      ],
      [
        "pat",
        "tern"
      ],
      [
        "b",
        "od"
      ],
      [
        "d",
        "a"
      ],
      [
        "g",
        "al"
      ],
      [
        "g",
        "as"
      ],
      [
        "h",
        "ad"
      ],
      [
        "m",
        "on"
      ],
      [
        "s",
        "k"
      ],
      [
        "s",
        "ome"
      ],
      [
        "v",
        "i"
      ],
      [
        "un",
        "der"
      ],
      [
        "pre",
        "served"
      ],
      [
        "tern",
        "a"
      ],
      [
        "bas",
        "e"
      ],
      [
        "sou",
        "th"
      ],
      [
        "fam",
        "ily"
      ],
      [
        "ae",
        "terna"
      ],
      [
        "commun",
        "ity"
      ],
      [
        "luc",
        "ina"
      ],
      [
        "c",
        "oun"
      ],
      [
        "l",
        "ast"
      ],
      [
        "at",
        "t"
      ],
      [
        "wh",
        "e"
      ],
      [
        "end",
        "ed"
      ],
      [
        "du",
        "e"
      ],
      [
        "lit",
        "er"
      ],
      [
        "landsc",
        "ape"
      ],
      [
        "euro",
        "pe"
      ],
      [
        "b",
        "al"
      ],
      [
        "e",
        "f"
      ],
      [
        "i",
        "ev"
      ],
      [
        "the",
        "ir"
      ],
      [
        "or",
        "ig"
      ],
      [
        "ar",
        "ian"
      ],
      [
        "ro",
        "ss"
      ],
      [
        "el",
        "a"
      ],
      [
        "ur",
        "ing"
      ],
      [
        "bl",
        "o"
      ],
      [
        "dom",
        "e"
      ],
      [
        "sh",
        "ape"
      ],
      [
        "ru",
        "ins"
      ],
      [
        "call",
        "ed"
      ],
      [
        "mount",
        "ain"
      ],
      [
        "otto",
        "man"
      ],
      [
        "2",
        "0"
      ],
      [
        "b",
        "a"
      ],
      [
        "b",
        "ed"
      ],
      [
        "c",
        "es"
      ],
      [
        "f",
        "un"
      ],
      [
        "g",
        "o"
      ],
      [
        "g",
        "u"
      ],
      [
        "i",
        "um"
      ],
      [
        "th",
        "ough"
      ],
      [
        "re",
        "s"
      ],
      [
        "ro",
        "ck"
      ],
      [
        "st",
        "re"
      ],
      [
        "de",
        "vel"
      ],
      [
        "pre",
        "s"
      ],
      [
        "agent",
        "s"
      ],
      [
        "fam",
        "ous"
      ],
      [
        "ref",
        "lect"
      ],
      [
        "german",
        "ic"
      ],
      [
        "minut",
        "e"
      ],
      [
        "eas",
        "tern"
      ],
      [
        "attra",
        "ct"
      ],
      [
        "magn",
        "et"
      ],
      [
        "bac",
        "k"
      ],
      [
        "orig",
        "in"
      ],
      [
        "devel",
        "op"
      ],
      [
        "b",
        "ell"
      ],
      [
        "c",
        "y"
      ],
      [
        "c",
        "ri"
      ],
      [
        "e",
        "an"
      ],
      [
        "f",
        "an"
      ],
      [
        "f",
        "ur"
      ],
      [
        "n",
        "ature"
      ],
      [
        "o",
        "v"
      ],
      [
        "t",
        "re"
      ],
      [
        "on",
        "line"
      ],
      [
        "as",
        "ian"
      ],
      [
        "ter",
        "rit"
      ],
      [
        "sp",
        "read"
      ],
      [
        "der",
        "ed"
      ],
      [
        "ag",
        "es"
      ],
      [
        "form",
        "ed"
      ],
      [
        "claim",
        "s"
      ],
      [
        "claim",
        "ed"
      ],
      [
        "gra",
        "m"
      ],
      [
        "phil",
        "ip"
      ],
      [
        "rus",
        "s"
      ],
      [
        "c",
        "u"
      ],
      [
        "d",
        "en"
      ],
      [
        "e",
        "very"
      ],
      [
        "h",
        "el"
      ],
      [
        "j",
        "ect"
      ],
      [
        "s",
        "al"
      ],
      [
        "s",
        "im"
      ],
      [
        "ent",
        "s"
      ],
      [
        "ut",
        "ion"
      ],
      [
        "cent",
        "ral"
      ],
      [
        "li",
        "fe"
      ],
      [
        "ind",
        "ian"
      ],
      [
        "mar",
        "k"
      ],
      [
        "gen",
        "er"
      ],
      [
        "dy",
        "nam"
      ],
      [
        "net",
        "work"
      ],
      [
        "cooper",
        "ation"
      ],
      [
        "b",
        "el"
      ],
      [
        "d",
        "ates"
      ],
      [
        "f",
        "all"
      ],
      [
        "h",
        "er"
      ],
      [
        "p",
        "s"
      ],
      [
        "p",
        "ers"
      ],
      [
        "t",
        "al"
      ],
      [
        "re",
        "al"
      ],
      [
        "as",
        "ia"
      ],
      [
        "ra",
        "re"
      ],
      [
        "ci",
        "l"
      ],
      [
        "con",
        "si"
      ],
      [
        "pro",
        "du"
      ],
      [
        "sou",
        "r"
      ],
      [
        "tim",
        "e"
      ],
      [
        "dat",
        "a"
      ],
      [
        "d",
        "ay"
      ],
      [
        "f",
        "ol"
      ],
      [
        "m",
        "ot"
      ],
      [
        "w",
        "ant"
      ],
      [
        "st",
        "at"
      ],
      [
        "ra",
        "m"
      ],
      [
        "ra",
        "in"
      ],
      [
        "se",
        "m"
      ],
      [
        "se",
        "ver"
      ],
      [
        "are",
        "a"
      ],
      [
        "pro",
        "gram"
      ],
      [
        "te",
        "am"
      ],
      [
        "cult",
        "ural"
      ],
      [
        "micro",
        "bial"
      ],
      [
        "olog",
        "y"
      ],
      [
        "rot",
        "ating"
      ],
      [
        "philip",
        "p"
      ],
      [
        "sever",
        "al"
      ],
      [
        "a",
        "ut"
      ],
      [
        "c",
        "av"
      ],
      [
        "d",
        "s"
      ],
      [
        "i",
        "o"
      ],
      [
        "m",
        "or"
      ],
      [
        "un",
        "t"
      ],
      [
        "un",
        "ion"
      ],
      [
        "ab",
        "out"
      ],
      [
        "ri",
        "but"
      ],
      [
        "micron",
        "ational"
      ],
      [
        "loc",
        "ated"
      ],
      [
        "gree",
        "k"
      ],
      [
        "bod",
        "y"
      ],
      [
        "1",
        "0"
      ],
      [
        "c",
        "ing"
      ],
      [
        "f",
        "a"
      ],
      [
        "f",
        "ir"
      ],
      [
        "h",
        "or"
      ],
      [
        "p",
        "et"
      ],
      [
        "p",
        "ain"
      ],
      [
        "t",
        "ran"
      ],
      [
        "v",
        "es"
      ],
      [
        "to",
        "w"
      ],
      [
        "om",
        "en"
      ],
      [
        "sp",
        "ace"
      ],
      [
        "with",
        "out"
      ],
      [
        "ad",
        "a"
      ],
      [
        "co",
        "ver"
      ],
      [
        "dis",
        "put"
      ],
      [
        "ital",
        "y"
      ],
      [
        "larg",
        "ely"
      ],
      [
        "soci",
        "al"
      ],
      [
        "colon",
        "ies"
      ],
      [
        "cor",
        "al"
      ],
      [
        "coun",
        "cil"
      ],
      [
        "fun",
        "ction"
      ],
      [
        "consi",
        "dered"
      ],
      [
        "fir",
        "st"
      ],
      [
        "disput",
        "es"
      ],
      [
        "1",
        "4"
      ],
      [
        "a",
        "w"
      ],
      [
        "a",
        "z"
      ],
      [
        "c",
        "er"
      ],
      [
        "d",
        "uring"
      ],
      [
        "f",
        "ron"
      ],
      [
        "g",
        "ian"
      ],
      [
        "p",
        "or"
      ],
      [
        "t",
        "ex"
      ],
      [
        "v",
        "al"
      ],
      [
        "or",
        "gan"
      ],
      [
        "ar",
        "a"
      ],
      [
        "as",
        "soci"
      ],
      [
        "sp",
        "e"
      ],
      [
        "ir",
        "on"
      ],
      [
        "pre",
        "dic"
      ],
      [
        "tw",
        "o"
      ],
      [
        "fron",
        "t"
      ],
      [
        "b",
        "re"
      ],
      [
        "b",
        "ian"
      ],
      [
        "h",
        "oc"
      ],
      [
        "o",
        "s"
      ],
      [
        "p",
        "ed"
      ],
      [
        "r",
        "at"
      ],
      [
        "v",
        "a"
      ],
      [
        "in",
        "vol"
      ],
      [
        "en",
        "omen"
      ],
      [
        "ar",
        "ding"
      ],
      [
        "ic",
        "k"
      ],
      [
        "st",
        "ar"
      ],
      [
        "st",
        "ra"
      ],
      [
        "ch",
        "ina"
      ],
      [
        "tra",
        "in"
      ],
      [
        "ian",
        "ce"
      ],
      [
        "de",
        "cla"
      ],
      [
        "all",
        "iance"
      ],
      [
        "art",
        "ists"
      ],
      [
        "ab",
        "ility"
      ],
      [
        "ph",
        "enomen"
      ],
      [
        "str",
        "u"
      ],
      [
        "cl",
        "imate"
      ],
      [
        "sour",
        "ce"
      ],
      [
        "unt",
        "il"
      ],
      [
        "front",
        "ier"
      ],
      [
        "m",
        "at"
      ],
      [
        "m",
        "ol"
      ],
      [
        "s",
        "ar"
      ],
      [
        "t",
        "or"
      ],
      [
        "t",
        "us"
      ],
      [
        "t",
        "est"
      ],
      [
        "v",
        "ar"
      ],
      [
        "w",
        "on"
      ],
      [
        "w",
        "es"
      ],
      [
        "w",
        "ell"
      ],
      [
        "w",
        "av"
      ],
      [
        "on",
        "es"
      ],
      [
        "ra",
        "ise"
      ],
      [
        "se",
        "x"
      ],
      [
        "am",
        "ent"
      ],
      [
        "pro",
        "v"
      ],
      [
        "pl",
        "an"
      ],
      [
        "des",
        "cri"
      ],
      [
        "nor",
        "thern"
      ],
      [
        "pol",
        "ic"
      ],
      [
        "phy",
        "s"
      ],
      [
        "reflect",
        "ing"
      ],
      [
        "develop",
        "ment"
      ],
      [
        "hoc",
        "key"
      ],
      [
        "c",
        "ell"
      ],
      [
        "c",
        "li"
      ],
      [
        "d",
        "ell"
      ],
      [
        "f",
        "low"
      ],
      [
        "l",
        "ion"
      ],
      [
        "n",
        "ar"
      ],
      [
        "o",
        "cean"
      ],
      [
        "p",
        "on"
      ],
      [
        "s",
        "il"
      ],
      [
        "x",
        "on"
      ],
      [
        "y",
        "ear"
      ],
      [
        "is",
        "su"
      ],
      [
        "le",
        "ad"
      ],
      [
        "se",
        "t"
      ],
      [
        "se",
        "v"
      ],
      [
        "ma",
        "ch"
      ],
      [
        "be",
        "an"
      ],
      [
        "ac",
        "ross"
      ],
      [
        "nam",
        "e"
      ],
      [
        "ber",
        "mu"
      ],
      [
        "fre",
        "e"
      ],
      [
        "gro",
        "up"
      ],
      [
        "pol",
        "is"
      ],
      [
        "mus",
        "ic"
      ],
      [
        "wed",
        "dell"
      ],
      [
        "magnet",
        "ic"
      ],
      [
        "philipp",
        "ine"
      ],
      [
        "phenomen",
        "on"
      ],
      [
        "bermu",
        "da"
      ],
      [
        "b",
        "es"
      ],
      [
        "s",
        "on"
      ],
      [
        "al",
        "s"
      ],
      [
        "ra",
        "y"
      ],
      [
        "con",
        "n"
      ],
      [
        "de",
        "pos"
      ],
      [
        "wh",
        "ite"
      ],
      [
        "op",
        "le"
      ],
      [
        "min",
        "is"
      ],
      [
        "sh",
        "ip"
      ],
      [
        "cre",
        "ating"
      ],
      [
        "act",
        "er"
      ],
      [
        "pl",
        "at"
      ],
      [
        "su",
        "b"
      ],
      [
        "buil",
        "ding"
      ],
      [
        "pla",
        "y"
      ],
      [
        "flu",
        "id"
      ],
      [
        "techn",
        "ology"
      ],
      [
        "won",
        "der"
      ],
      [
        "d",
        "on"
      ],
      [
        "e",
        "w"
      ],
      [
        "n",
        "ic"
      ],
      [
        "er",
        "or"
      ],
      [
        "re",
        "sem"
      ],
      [
        "om",
        "et"
      ],
      [
        "ition",
        "s"
      ],
      [
        "trad",
        "e"
      ],
      [
        "us",
        "es"
      ],
      [
        "ist",
        "an"
      ],
      [
        "be",
        "aut"
      ],
      [
        "ex",
        "ist"
      ],
      [
        "emp",
        "eror"
      ],
      [
        "col",
        "ors"
      ],
      [
        "oc",
        "cur"
      ],
      [
        "temp",
        "er"
      ],
      [
        "sa",
        "xon"
      ],
      [
        "pres",
        "ent"
      ],
      [
        "decla",
        "red"
      ],
      [
        "stru",
        "ct"
      ],
      [
        "plat",
        "form"
      ],
      [
        "b",
        "i"
      ],
      [
        "d",
        "ra"
      ],
      [
        "g",
        "lo"
      ],
      [
        "h",
        "ar"
      ],
      [
        "i",
        "de"
      ],
      [
        "m",
        "p"
      ],
      [
        "n",
        "ation"
      ],
      [
        "o",
        "k"
      ],
      [
        "p",
        "y"
      ],
      [
        "p",
        "in"
      ],
      [
        "r",
        "ian"
      ],
      [
        "s",
        "is"
      ],
      [
        "en",
        "k"
      ],
      [
        "ion",
        "al"
      ],
      [
        "ro",
        "se"
      ],
      [
        "el",
        "ement"
      ],
      [
        "om",
        "ic"
      ],
      [
        "us",
        "h"
      ],
      [
        "us",
        "ing"
      ],
      [
        "ron",
        "g"
      ],
      [
        "cont",
        "ro"
      ],
      [
        "ak",
        "h"
      ],
      [
        "stre",
        "am"
      ],
      [
        "dynam",
        "ics"
      ],
      [
        "fol",
        "k"
      ],
      [
        "cover",
        "ed"
      ],
      [
        "associ",
        "ation"
      ],
      [
        "predic",
        "t"
      ],
      [
        "mach",
        "ine"
      ],
      [
        "glo",
        "bal"
      ],
      [
        "e",
        "p"
      ],
      [
        "f",
        "ra"
      ],
      [
        "h",
        "ous"
      ],
      [
        "n",
        "ia"
      ],
      [
        "r",
        "is"
      ],
      [
        "r",
        "iv"
      ],
      [
        "s",
        "ed"
      ],
      [
        "s",
        "ch"
      ],
      [
        "s",
        "au"
      ],
      [
        "t",
        "ain"
      ],
      [
        "w",
        "rit"
      ],
      [
        "y",
        "or"
      ],
      [
        "an",
        "y"
      ],
      [
        "on",
        "ly"
      ],
      [
        "al",
        "e"
      ],
      [
        "st",
        "rong"
      ],
      [
        "pro",
        "cess"
      ],
      [
        "be",
        "en"
      ],
      [
        "be",
        "fore"
      ],
      [
        "col",
        "lect"
      ],
      [
        "sh",
        "ap"
      ],
      [
        "ne",
        "ver"
      ],
      [
        "fre",
        "ed"
      ],
      [
        "med",
        "iev"
      ],
      [
        "car",
        "ib"
      ],
      [
        "loc",
        "al"
      ],
      [
        "miner",
        "va"
      ],
      [
        "earth",
        "qu"
      ],
      [
        "territ",
        "ory"
      ],
      [
        "pers",
        "ian"
      ],
      [
        "gian",
        "t"
      ],
      [
        "tex",
        "as"
      ],
      [
        "cli",
        "ff"
      ],
      [
        "mediev",
        "al"
      ],
      [
        "carib",
        "bean"
      ],
      [
        "b",
        "ra"
      ],
      [
        "c",
        "lear"
      ],
      [
        "g",
        "od"
      ],
      [
        "i",
        "fic"
      ],
      [
        "l",
        "at"
      ],
      [
        "m",
        "el"
      ],
      [
        "n",
        "ch"
      ],
      [
        "n",
        "av"
      ],
      [
        "o",
        "so"
      ],
      [
        "s",
        "ign"
      ],
      [
        "as",
        "e"
      ],
      [
        "ro",
        "un"
      ],
      [
        "st",
        "ell"
      ],
      [
        "se",
        "e"
      ],
      [
        "se",
        "um"
      ],
      [
        "em",
        "is"
      ],
      [
        "pl",
        "ant"
      ],
      [
        "per",
        "i"
      ],
      [
        "des",
        "ign"
      ],
      [
        "hav",
        "ing"
      ],
      [
        "ca",
        "used"
      ],
      [
        "roy",
        "ed"
      ],
      [
        "sovereign",
        "ty"
      ],
      [
        "dest",
        "royed"
      ],
      [
        "ob",
        "ject"
      ],
      [
        "bec",
        "ame"
      ],
      [
        "year",
        "s"
      ],
      [
        "conn",
        "ect"
      ],
      [
        "contro",
        "l"
      ],
      [
        ")",
        "."
      ],
      [
        "c",
        "ot"
      ],
      [
        "e",
        "con"
      ],
      [
        "f",
        "oc"
      ],
      [
        "h",
        "ut"
      ],
      [
        "s",
        "am"
      ],
      [
        "w",
        "ere"
      ],
      [
        "ic",
        "ated"
      ],
      [
        "st",
        "ory"
      ],
      [
        "le",
        "y"
      ],
      [
        "ad",
        "v"
      ],
      [
        "op",
        "al"
      ],
      [
        "ang",
        "lo"
      ],
      [
        "pr",
        "im"
      ],
      [
        "he",
        "art"
      ],
      [
        "fre",
        "qu"
      ],
      [
        "gro",
        "und"
      ],
      [
        "eng",
        "land"
      ],
      [
        "gra",
        "v"
      ],
      [
        "sur",
        "roun"
      ],
      [
        "inclu",
        "de"
      ],
      [
        "phil",
        "oso"
      ],
      [
        "sup",
        "port"
      ],
      [
        "invol",
        "ves"
      ],
      [
        "shap",
        "ed"
      ],
      [
        "freed",
        "om"
      ],
      [
        ",",
        "'"
      ],
      [
        "g",
        "by"
      ],
      [
        "i",
        "or"
      ],
      [
        "j",
        "ew"
      ],
      [
        "m",
        "ur"
      ],
      [
        "o",
        "ise"
      ],
      [
        "t",
        "as"
      ],
      [
        "v",
        "iron"
      ],
      [
        "w",
        "ind"
      ],
      [
        "in",
        "ation"
      ],
      [
        "al",
        "g"
      ],
      [
        "en",
        "viron"
      ],
      [
        "ar",
        "d"
      ],
      [
        "as",
        "c"
      ],
      [
        "sp",
        "ect"
      ],
      [
        "con",
        "qu"
      ],
      [
        "ul",
        "pt"
      ],
      [
        "qu",
        "ick"
      ],
      [
        "qu",
        "oise"
      ],
      [
        "are",
        "d"
      ],
      [
        "ab",
        "s"
      ],
      [
        "ab",
        "stra"
      ],
      [
        "li",
        "ber"
      ],
      [
        "au",
        "se"
      ],
      [
        "lear",
        "n"
      ],
      [
        "pl",
        "ic"
      ],
      [
        "dis",
        "pu"
      ],
      [
        "sc",
        "ot"
      ],
      [
        "sc",
        "ulpt"
      ],
      [
        "micron",
        "ations"
      ],
      [
        "fre",
        "nch"
      ],
      [
        "tur",
        "quoise"
      ],
      [
        "ru",
        "gby"
      ],
      [
        "med",
        "ia"
      ],
      [
        "prot",
        "ect"
      ],
      [
        "temp",
        "le"
      ],
      [
        "tour",
        "ist"
      ],
      [
        "russ",
        "ian"
      ],
      [
        "tran",
        "s"
      ],
      [
        "var",
        "ious"
      ],
      [
        "pon",
        "tus"
      ],
      [
        "issu",
        "es"
      ],
      [
        "environ",
        "ment"
      ],
      [
        "sculpt",
        "ure"
      ],
      [
        "a",
        "is"
      ],
      [
        "e",
        "qu"
      ],
      [
        "f",
        "av"
      ],
      [
        "f",
        "ace"
      ],
      [
        "g",
        "ay"
      ],
      [
        "h",
        "it"
      ],
      [
        "l",
        "ond"
      ],
      [
        "m",
        "s"
      ],
      [
        "m",
        "er"
      ],
      [
        "p",
        "il"
      ],
      [
        "p",
        "ast"
      ],
      [
        "r",
        "ul"
      ],
      [
        "t",
        "it"
      ],
      [
        "w",
        "y"
      ],
      [
        "th",
        "or"
      ],
      [
        "th",
        "od"
      ],
      [
        "the",
        "ater"
      ],
      [
        "an",
        "em"
      ],
      [
        "on",
        "ed"
      ],
      [
        "re",
        "present"
      ],
      [
        "ro",
        "ad"
      ],
      [
        "st",
        "y"
      ],
      [
        "st",
        "en"
      ],
      [
        "el",
        "le"
      ],
      [
        "le",
        "vel"
      ],
      [
        "ci",
        "al"
      ],
      [
        "ci",
        "fic"
      ],
      [
        "il",
        "ar"
      ],
      [
        "sp",
        "a"
      ],
      [
        "pu",
        "mp"
      ],
      [
        "con",
        "ch"
      ],
      [
        "et",
        "y"
      ],
      [
        "est",
        "s"
      ],
      [
        "art",
        "emis"
      ],
      [
        "ex",
        "p"
      ],
      [
        "sh",
        "ell"
      ],
      [
        "can",
        "ada"
      ],
      [
        "act",
        "ive"
      ],
      [
        "roman",
        "s"
      ],
      [
        "cont",
        "ain"
      ],
      [
        "ight",
        "s"
      ],
      [
        "ca",
        "es"
      ],
      [
        "seal",
        "and"
      ],
      [
        "war",
        "ri"
      ],
      [
        "mu",
        "seum"
      ],
      [
        "christian",
        "ity"
      ],
      [
        "wil",
        "d"
      ],
      [
        "fore",
        "st"
      ],
      [
        "fl",
        "or"
      ],
      [
        "cond",
        "itions"
      ],
      [
        "press",
        "ion"
      ],
      [
        "sim",
        "ilar"
      ],
      [
        "tal",
        "oss"
      ],
      [
        "test",
        "ament"
      ],
      [
        "wes",
        "tern"
      ],
      [
        "descri",
        "bes"
      ],
      [
        "resem",
        "bles"
      ],
      [
        "struct",
        "ure"
      ],
      [
        "econ",
        "omic"
      ],
      [
        "jew",
        "el"
      ],
      [
        "quick",
        "ly"
      ],
      [
        "fav",
        "or"
      ],
      [
        "lond",
        "on"
      ],
      [
        "1",
        "5"
      ],
      [
        "a",
        "er"
      ],
      [
        "b",
        "ar"
      ],
      [
        "b",
        "ing"
      ],
      [
        "e",
        "th"
      ],
      [
        "f",
        "ut"
      ],
      [
        "f",
        "land"
      ],
      [
        "h",
        "un"
      ],
      [
        "h",
        "um"
      ],
      [
        "h",
        "ome"
      ],
      [
        "h",
        "our"
      ],
      [
        "i",
        "f"
      ],
      [
        "k",
        "et"
      ],
      [
        "n",
        "ess"
      ],
      [
        "o",
        "ol"
      ],
      [
        "p",
        "ri"
      ],
      [
        "p",
        "ass"
      ],
      [
        "s",
        "ame"
      ],
      [
        "t",
        "av"
      ],
      [
        "w",
        "ait"
      ],
      [
        "z",
        "iv"
      ],
      [
        "in",
        "es"
      ],
      [
        "er",
        "ed"
      ],
      [
        "er",
        "ing"
      ],
      [
        "re",
        "ach"
      ],
      [
        "en",
        "enk"
      ],
      [
        "it",
        "ect"
      ],
      [
        "ar",
        "ct"
      ],
      [
        "ar",
        "ab"
      ],
      [
        "st",
        "ability"
      ],
      [
        "to",
        "ise"
      ],
      [
        "ra",
        "warri"
      ],
      [
        "ge",
        "ais"
      ],
      [
        "em",
        "bas"
      ],
      [
        "sp",
[...]
